// rps32model.h - TensorFlow lite model - 2021-08-21 21:31:04.196705

#define RPS32MODEL_LEN 37088

#define RPS32MODEL_ALIGN __attribute__((aligned(4)))

const unsigned char rps32model_data[RPS32MODEL_LEN] RPS32MODEL_ALIGN = {
  0x1C, 0x00, 0x00, 0x00, 0x54, 0x46, 0x4C, 0x33, 
  0x14, 0x00, 0x20, 0x00, 0x04, 0x00, 0x08, 0x00, 
  0x0C, 0x00, 0x10, 0x00, 0x14, 0x00, 0x00, 0x00, 
  0x18, 0x00, 0x1C, 0x00, 0x14, 0x00, 0x00, 0x00, 
  0x03, 0x00, 0x00, 0x00, 0x18, 0x00, 0x00, 0x00, 
  0x2C, 0x00, 0x00, 0x00, 0xC8, 0x00, 0x00, 0x00, 
  0x2C, 0x00, 0x00, 0x00, 0x70, 0x00, 0x00, 0x00, 
  0x68, 0x00, 0x00, 0x00, 0x05, 0x00, 0x00, 0x00, 
  0x40, 0x05, 0x00, 0x00, 0x5C, 0x04, 0x00, 0x00, 
  0x94, 0x03, 0x00, 0x00, 0xD0, 0x02, 0x00, 0x00, 
  0x84, 0x01, 0x00, 0x00, 0x01, 0x00, 0x00, 0x00, 
  0xC0, 0x00, 0x00, 0x00, 0x10, 0x00, 0x00, 0x00, 
  0x7C, 0x90, 0x00, 0x00, 0x78, 0x90, 0x00, 0x00, 
  0x9C, 0x8F, 0x00, 0x00, 0x08, 0x8F, 0x00, 0x00, 
  0x8C, 0x8E, 0x00, 0x00, 0x0C, 0x8E, 0x00, 0x00, 
  0xAC, 0x07, 0x00, 0x00, 0x08, 0x07, 0x00, 0x00, 
  0xD4, 0x05, 0x00, 0x00, 0x58, 0x90, 0x00, 0x00, 
  0x54, 0x90, 0x00, 0x00, 0x50, 0x90, 0x00, 0x00, 
  0x4C, 0x90, 0x00, 0x00, 0x48, 0x90, 0x00, 0x00, 
  0x44, 0x90, 0x00, 0x00, 0x3C, 0x00, 0x00, 0x00, 
  0x00, 0x00, 0x00, 0x00, 0x01, 0x00, 0x00, 0x00, 
  0x0C, 0x00, 0x00, 0x00, 0x08, 0x00, 0x0C, 0x00, 
  0x04, 0x00, 0x08, 0x00, 0x08, 0x00, 0x00, 0x00, 
  0x08, 0x00, 0x00, 0x00, 0x0F, 0x00, 0x00, 0x00, 
  0x13, 0x00, 0x00, 0x00, 0x6D, 0x69, 0x6E, 0x5F, 
  0x72, 0x75, 0x6E, 0x74, 0x69, 0x6D, 0x65, 0x5F, 
  0x76, 0x65, 0x72, 0x73, 0x69, 0x6F, 0x6E, 0x00, 
  0xDA, 0x70, 0xFF, 0xFF, 0x04, 0x00, 0x00, 0x00, 
  0x10, 0x00, 0x00, 0x00, 0x31, 0x2E, 0x35, 0x2E, 
  0x30, 0x00, 0x00, 0x00, 0x00, 0x00, 0x00, 0x00, 
  0x00, 0x00, 0x00, 0x00, 0x0F, 0x00, 0x00, 0x00, 
  0x4D, 0x4C, 0x49, 0x52, 0x20, 0x43, 0x6F, 0x6E, 
  0x76, 0x65, 0x72, 0x74, 0x65, 0x64, 0x2E, 0x00, 
  0x00, 0x00, 0x0E, 0x00, 0x18, 0x00, 0x04, 0x00, 
  0x08, 0x00, 0x0C, 0x00, 0x10, 0x00, 0x14, 0x00, 
  0x0E, 0x00, 0x00, 0x00, 0x14, 0x00, 0x00, 0x00, 
  0x4C, 0x00, 0x00, 0x00, 0x50, 0x00, 0x00, 0x00, 
  0x54, 0x00, 0x00, 0x00, 0x6C, 0x00, 0x00, 0x00, 
  0x0E, 0x00, 0x00, 0x00, 0x4C, 0x8F, 0x00, 0x00, 
  0xF0, 0x8E, 0x00, 0x00, 0x64, 0x8E, 0x00, 0x00, 
  0xDC, 0x8D, 0x00, 0x00, 0x60, 0x8D, 0x00, 0x00, 
  0xF8, 0x8C, 0x00, 0x00, 0x94, 0x06, 0x00, 0x00, 
  0xE8, 0x05, 0x00, 0x00, 0x3C, 0x04, 0x00, 0x00, 
  0x58, 0x03, 0x00, 0x00, 0x90, 0x02, 0x00, 0x00, 
  0xCC, 0x01, 0x00, 0x00, 0x08, 0x01, 0x00, 0x00, 
  0x7C, 0x00, 0x00, 0x00, 0x01, 0x00, 0x00, 0x00, 
  0x00, 0x00, 0x00, 0x00, 0x01, 0x00, 0x00, 0x00, 
  0x0D, 0x00, 0x00, 0x00, 0x06, 0x00, 0x00, 0x00, 
  0xAC, 0x03, 0x00, 0x00, 0xCC, 0x02, 0x00, 0x00, 
  0x30, 0x02, 0x00, 0x00, 0x50, 0x01, 0x00, 0x00, 
  0xA8, 0x00, 0x00, 0x00, 0x10, 0x00, 0x00, 0x00, 
  0x04, 0x00, 0x00, 0x00, 0x6D, 0x61, 0x69, 0x6E, 
  0x00, 0x00, 0x00, 0x00, 0x7A, 0xFF, 0xFF, 0xFF, 
  0x00, 0x00, 0x00, 0x09, 0x04, 0x00, 0x00, 0x00, 
  0x1C, 0x00, 0x00, 0x00, 0x10, 0x00, 0x00, 0x00, 
  0x04, 0x00, 0x00, 0x00, 0xBE, 0x71, 0xFF, 0xFF, 
  0x00, 0x00, 0x80, 0x3F, 0x01, 0x00, 0x00, 0x00, 
  0x0D, 0x00, 0x00, 0x00, 0x01, 0x00, 0x00, 0x00, 
  0x0C, 0x00, 0x00, 0x00, 0x60, 0xFC, 0xFF, 0xFF, 
  0x19, 0x00, 0x00, 0x00, 0x00, 0x00, 0x00, 0x19, 
  0x01, 0x00, 0x00, 0x00, 0x78, 0x71, 0xFF, 0xFF, 
  0x14, 0x00, 0x00, 0x00, 0x0E, 0x00, 0x00, 0x00, 
  0x24, 0x00, 0x00, 0x00, 0x30, 0x00, 0x00, 0x00, 
  0x10, 0x00, 0x00, 0x00, 0x02, 0x00, 0x00, 0x00, 
  0x01, 0x00, 0x00, 0x00, 0x04, 0x00, 0x00, 0x00, 
  0x02, 0x00, 0x00, 0x00, 0xFF, 0xFF, 0xFF, 0xFF, 
  0x04, 0x00, 0x00, 0x00, 0x08, 0x00, 0x00, 0x00, 
  0x49, 0x64, 0x65, 0x6E, 0x74, 0x69, 0x74, 0x79, 
  0x00, 0x00, 0x00, 0x00, 0x30, 0x72, 0xFF, 0xFF, 
  0x00, 0x00, 0x0E, 0x00, 0x18, 0x00, 0x08, 0x00, 
  0x0C, 0x00, 0x10, 0x00, 0x07, 0x00, 0x14, 0x00, 
  0x0E, 0x00, 0x00, 0x00, 0x00, 0x00, 0x00, 0x08, 
  0x03, 0x00, 0x00, 0x00, 0x18, 0x00, 0x00, 0x00, 
  0x0C, 0x00, 0x00, 0x00, 0x04, 0x00, 0x00, 0x00, 
  0x78, 0x71, 0xFF, 0xFF, 0x01, 0x00, 0x00, 0x00, 
  0x0C, 0x00, 0x00, 0x00, 0x03, 0x00, 0x00, 0x00, 
  0x0B, 0x00, 0x00, 0x00, 0x06, 0x00, 0x00, 0x00, 
  0x02, 0x00, 0x00, 0x00, 0x00, 0x72, 0xFF, 0xFF, 
  0x14, 0x00, 0x00, 0x00, 0x0D, 0x00, 0x00, 0x00, 
  0x24, 0x00, 0x00, 0x00, 0x5C, 0x00, 0x00, 0x00, 
  0x10, 0x00, 0x00, 0x00, 0x02, 0x00, 0x00, 0x00, 
  0x01, 0x00, 0x00, 0x00, 0x04, 0x00, 0x00, 0x00, 
  0x02, 0x00, 0x00, 0x00, 0xFF, 0xFF, 0xFF, 0xFF, 
  0x04, 0x00, 0x00, 0x00, 0x34, 0x00, 0x00, 0x00, 
  0x73, 0x65, 0x71, 0x75, 0x65, 0x6E, 0x74, 0x69, 
  0x61, 0x6C, 0x2F, 0x64, 0x65, 0x6E, 0x73, 0x65, 
  0x5F, 0x31, 0x2F, 0x4D, 0x61, 0x74, 0x4D, 0x75, 
  0x6C, 0x3B, 0x73, 0x65, 0x71, 0x75, 0x65, 0x6E, 
  0x74, 0x69, 0x61, 0x6C, 0x2F, 0x64, 0x65, 0x6E, 
  0x73, 0x65, 0x5F, 0x31, 0x2F, 0x42, 0x69, 0x61, 
  0x73, 0x41, 0x64, 0x64, 0x00, 0x00, 0x00, 0x00, 
  0x00, 0x72, 0xFF, 0xFF, 0x9A, 0xFE, 0xFF, 0xFF, 
  0x00, 0x00, 0x00, 0x08, 0x03, 0x00, 0x00, 0x00, 
  0x24, 0x00, 0x00, 0x00, 0x18, 0x00, 0x00, 0x00, 
  0x0C, 0x00, 0x00, 0x00, 0x00, 0x00, 0x06, 0x00, 
  0x08, 0x00, 0x07, 0x00, 0x06, 0x00, 0x00, 0x00, 
  0x00, 0x00, 0x00, 0x01, 0x01, 0x00, 0x00, 0x00, 
  0x0B, 0x00, 0x00, 0x00, 0x03, 0x00, 0x00, 0x00, 
  0x0A, 0x00, 0x00, 0x00, 0x05, 0x00, 0x00, 0x00, 
  0x03, 0x00, 0x00, 0x00, 0xA8, 0xFD, 0xFF, 0xFF, 
  0x09, 0x00, 0x00, 0x00, 0x00, 0x00, 0x00, 0x09, 
  0x01, 0x00, 0x00, 0x00, 0xC0, 0x72, 0xFF, 0xFF, 
  0x14, 0x00, 0x00, 0x00, 0x0C, 0x00, 0x00, 0x00, 
  0x24, 0x00, 0x00, 0x00, 0x6C, 0x00, 0x00, 0x00, 
  0x10, 0x00, 0x00, 0x00, 0x02, 0x00, 0x00, 0x00, 
  0x01, 0x00, 0x00, 0x00, 0x05, 0x00, 0x00, 0x00, 
  0x02, 0x00, 0x00, 0x00, 0xFF, 0xFF, 0xFF, 0xFF, 
  0x05, 0x00, 0x00, 0x00, 0x46, 0x00, 0x00, 0x00, 
  0x73, 0x65, 0x71, 0x75, 0x65, 0x6E, 0x74, 0x69, 
  0x61, 0x6C, 0x2F, 0x64, 0x65, 0x6E, 0x73, 0x65, 
  0x2F, 0x4D, 0x61, 0x74, 0x4D, 0x75, 0x6C, 0x3B, 
  0x73, 0x65, 0x71, 0x75, 0x65, 0x6E, 0x74, 0x69, 
  0x61, 0x6C, 0x2F, 0x64, 0x65, 0x6E, 0x73, 0x65, 
  0x2F, 0x52, 0x65, 0x6C, 0x75, 0x3B, 0x73, 0x65, 
  0x71, 0x75, 0x65, 0x6E, 0x74, 0x69, 0x61, 0x6C, 
  0x2F, 0x64, 0x65, 0x6E, 0x73, 0x65, 0x2F, 0x42, 
  0x69, 0x61, 0x73, 0x41, 0x64, 0x64, 0x00, 0x00, 
  0xB4, 0x73, 0xFF, 0xFF, 0x00, 0x00, 0x0A, 0x00, 
  0x10, 0x00, 0x04, 0x00, 0x08, 0x00, 0x0C, 0x00, 
  0x0A, 0x00, 0x00, 0x00, 0x02, 0x00, 0x00, 0x00, 
  0x10, 0x00, 0x00, 0x00, 0x04, 0x00, 0x00, 0x00, 
  0x01, 0x00, 0x00, 0x00, 0x0A, 0x00, 0x00, 0x00, 
  0x02, 0x00, 0x00, 0x00, 0x09, 0x00, 0x00, 0x00, 
  0x01, 0x00, 0x00, 0x00, 0x68, 0xFE, 0xFF, 0xFF, 
  0x16, 0x00, 0x00, 0x00, 0x00, 0x00, 0x00, 0x16, 
  0x01, 0x00, 0x00, 0x00, 0x80, 0x73, 0xFF, 0xFF, 
  0x14, 0x00, 0x00, 0x00, 0x0B, 0x00, 0x00, 0x00, 
  0x24, 0x00, 0x00, 0x00, 0x40, 0x00, 0x00, 0x00, 
  0x10, 0x00, 0x00, 0x00, 0x02, 0x00, 0x00, 0x00, 
  0x01, 0x00, 0x00, 0x00, 0xB4, 0x06, 0x00, 0x00, 
  0x02, 0x00, 0x00, 0x00, 0xFF, 0xFF, 0xFF, 0xFF, 
  0xB4, 0x06, 0x00, 0x00, 0x1A, 0x00, 0x00, 0x00, 
  0x73, 0x65, 0x71, 0x75, 0x65, 0x6E, 0x74, 0x69, 
  0x61, 0x6C, 0x2F, 0x66, 0x6C, 0x61, 0x74, 0x74, 
  0x65, 0x6E, 0x2F, 0x52, 0x65, 0x73, 0x68, 0x61, 
  0x70, 0x65, 0x00, 0x00, 0x48, 0x74, 0xFF, 0xFF, 
  0x00, 0x00, 0x0E, 0x00, 0x1A, 0x00, 0x08, 0x00, 
  0x0C, 0x00, 0x10, 0x00, 0x07, 0x00, 0x14, 0x00, 
  0x0E, 0x00, 0x00, 0x00, 0x00, 0x00, 0x00, 0x05, 
  0x01, 0x00, 0x00, 0x00, 0x3C, 0x00, 0x00, 0x00, 
  0x30, 0x00, 0x00, 0x00, 0x14, 0x00, 0x00, 0x00, 
  0x00, 0x00, 0x0E, 0x00, 0x18, 0x00, 0x17, 0x00, 
  0x10, 0x00, 0x0C, 0x00, 0x08, 0x00, 0x04, 0x00, 
  0x0E, 0x00, 0x00, 0x00, 0x02, 0x00, 0x00, 0x00, 
  0x02, 0x00, 0x00, 0x00, 0x02, 0x00, 0x00, 0x00, 
  0x02, 0x00, 0x00, 0x00, 0x00, 0x00, 0x00, 0x01, 
  0x01, 0x00, 0x00, 0x00, 0x09, 0x00, 0x00, 0x00, 
  0x01, 0x00, 0x00, 0x00, 0x08, 0x00, 0x00, 0x00, 
  0x2C, 0xFF, 0xFF, 0xFF, 0x11, 0x00, 0x00, 0x00, 
  0x00, 0x00, 0x00, 0x11, 0x01, 0x00, 0x00, 0x00, 
  0x44, 0x74, 0xFF, 0xFF, 0x14, 0x00, 0x00, 0x00, 
  0x0A, 0x00, 0x00, 0x00, 0x34, 0x00, 0x00, 0x00, 
  0x58, 0x00, 0x00, 0x00, 0x18, 0x00, 0x00, 0x00, 
  0x04, 0x00, 0x00, 0x00, 0x01, 0x00, 0x00, 0x00, 
  0x0D, 0x00, 0x00, 0x00, 0x16, 0x00, 0x00, 0x00, 
  0x06, 0x00, 0x00, 0x00, 0x04, 0x00, 0x00, 0x00, 
  0xFF, 0xFF, 0xFF, 0xFF, 0x0D, 0x00, 0x00, 0x00, 
  0x16, 0x00, 0x00, 0x00, 0x06, 0x00, 0x00, 0x00, 
  0x20, 0x00, 0x00, 0x00, 0x73, 0x65, 0x71, 0x75, 
  0x65, 0x6E, 0x74, 0x69, 0x61, 0x6C, 0x2F, 0x6D, 
  0x61, 0x78, 0x5F, 0x70, 0x6F, 0x6F, 0x6C, 0x69, 
  0x6E, 0x67, 0x32, 0x64, 0x2F, 0x4D, 0x61, 0x78, 
  0x50, 0x6F, 0x6F, 0x6C, 0x00, 0x00, 0x00, 0x00, 
  0x24, 0x75, 0xFF, 0xFF, 0x00, 0x00, 0x0E, 0x00, 
  0x14, 0x00, 0x00, 0x00, 0x08, 0x00, 0x0C, 0x00, 
  0x07, 0x00, 0x10, 0x00, 0x0E, 0x00, 0x00, 0x00, 
  0x00, 0x00, 0x00, 0x01, 0x30, 0x00, 0x00, 0x00, 
  0x24, 0x00, 0x00, 0x00, 0x10, 0x00, 0x00, 0x00, 
  0x0C, 0x00, 0x10, 0x00, 0x0E, 0x00, 0x04, 0x00, 
  0x08, 0x00, 0x0F, 0x00, 0x0C, 0x00, 0x00, 0x00, 
  0x01, 0x00, 0x00, 0x00, 0x01, 0x00, 0x00, 0x00, 
  0x00, 0x00, 0x01, 0x01, 0x01, 0x00, 0x00, 0x00, 
  0x08, 0x00, 0x00, 0x00, 0x03, 0x00, 0x00, 0x00, 
  0x00, 0x00, 0x00, 0x00, 0x07, 0x00, 0x00, 0x00, 
  0x04, 0x00, 0x00, 0x00, 0x0C, 0x00, 0x10, 0x00, 
  0x0B, 0x00, 0x00, 0x00, 0x0C, 0x00, 0x04, 0x00, 
  0x0C, 0x00, 0x00, 0x00, 0x03, 0x00, 0x00, 0x00, 
  0x00, 0x00, 0x00, 0x03, 0x01, 0x00, 0x00, 0x00, 
  0x24, 0x75, 0xFF, 0xFF, 0x14, 0x00, 0x00, 0x00, 
  0x09, 0x00, 0x00, 0x00, 0x34, 0x00, 0x00, 0x00, 
  0xB0, 0x00, 0x00, 0x00, 0x18, 0x00, 0x00, 0x00, 
  0x04, 0x00, 0x00, 0x00, 0x01, 0x00, 0x00, 0x00, 
  0x1A, 0x00, 0x00, 0x00, 0x2C, 0x00, 0x00, 0x00, 
  0x06, 0x00, 0x00, 0x00, 0x04, 0x00, 0x00, 0x00, 
  0xFF, 0xFF, 0xFF, 0xFF, 0x1A, 0x00, 0x00, 0x00, 
  0x2C, 0x00, 0x00, 0x00, 0x06, 0x00, 0x00, 0x00, 
  0x7B, 0x00, 0x00, 0x00, 0x73, 0x65, 0x71, 0x75, 
  0x65, 0x6E, 0x74, 0x69, 0x61, 0x6C, 0x2F, 0x63, 
  0x6F, 0x6E, 0x76, 0x32, 0x64, 0x2F, 0x52, 0x65, 
  0x6C, 0x75, 0x3B, 0x73, 0x65, 0x71, 0x75, 0x65, 
  0x6E, 0x74, 0x69, 0x61, 0x6C, 0x2F, 0x63, 0x6F, 
  0x6E, 0x76, 0x32, 0x64, 0x2F, 0x42, 0x69, 0x61, 
  0x73, 0x41, 0x64, 0x64, 0x3B, 0x73, 0x65, 0x71, 
  0x75, 0x65, 0x6E, 0x74, 0x69, 0x61, 0x6C, 0x2F, 
  0x63, 0x6F, 0x6E, 0x76, 0x32, 0x64, 0x2F, 0x43, 
  0x6F, 0x6E, 0x76, 0x32, 0x44, 0x3B, 0x73, 0x65, 
  0x71, 0x75, 0x65, 0x6E, 0x74, 0x69, 0x61, 0x6C, 
  0x2F, 0x63, 0x6F, 0x6E, 0x76, 0x32, 0x64, 0x2F, 
  0x42, 0x69, 0x61, 0x73, 0x41, 0x64, 0x64, 0x2F, 
  0x52, 0x65, 0x61, 0x64, 0x56, 0x61, 0x72, 0x69, 
  0x61, 0x62, 0x6C, 0x65, 0x4F, 0x70, 0x2F, 0x72, 
  0x65, 0x73, 0x6F, 0x75, 0x72, 0x63, 0x65, 0x00, 
  0x78, 0x75, 0xFF, 0xFF, 0x56, 0x76, 0xFF, 0xFF, 
  0x04, 0x00, 0x00, 0x00, 0xD8, 0x00, 0x00, 0x00, 
  0x6C, 0x5D, 0x2D, 0x3E, 0x0A, 0x73, 0x5E, 0x3E, 
  0xA3, 0xEB, 0x1D, 0xBE, 0x68, 0x3D, 0x34, 0x3E, 
  0x21, 0xD5, 0x3E, 0x3E, 0xFA, 0x8D, 0xB8, 0x3E, 
  0x0A, 0x59, 0xA4, 0x3E, 0x25, 0x33, 0xC6, 0x3E, 
  0xD5, 0xCC, 0x7A, 0x3E, 0xB6, 0x03, 0x03, 0xBE, 
  0xFB, 0xE3, 0x1E, 0x3E, 0xD3, 0xAE, 0x46, 0xBD, 
  0x13, 0x7E, 0xD1, 0xBE, 0x9D, 0x04, 0xA9, 0xBE, 
  0x5A, 0x1E, 0xD1, 0xBE, 0xA1, 0x1B, 0x88, 0x3D, 
  0x00, 0x34, 0xED, 0xBE, 0x44, 0xB0, 0xBE, 0xBE, 
  0x3A, 0xAB, 0x49, 0xBD, 0x4B, 0xA3, 0x0C, 0xBE, 
  0x1F, 0xDF, 0x86, 0x3D, 0x59, 0xE3, 0x86, 0x3E, 
  0x1D, 0xEC, 0x49, 0x3E, 0x9A, 0xD5, 0xA6, 0x3E, 
  0xC7, 0xE8, 0x24, 0x3D, 0x76, 0x99, 0xA6, 0x3E, 
  0x62, 0x32, 0x49, 0x3E, 0x70, 0x0C, 0xD6, 0xBD, 
  0x8B, 0x6B, 0x79, 0xBE, 0x6B, 0xE8, 0x4A, 0x3E, 
  0xA6, 0xF0, 0x2F, 0xBD, 0x7A, 0x00, 0x8D, 0xBE, 
  0x60, 0xD8, 0xA3, 0xBD, 0x0C, 0x64, 0x32, 0x3E, 
  0x3E, 0xCF, 0x00, 0x3E, 0x79, 0x12, 0x42, 0xBD, 
  0x02, 0x0D, 0x0A, 0xBF, 0xC7, 0x99, 0xBC, 0xBE, 
  0x7D, 0x97, 0x0A, 0xBF, 0x60, 0x8B, 0xE9, 0xBE, 
  0xB3, 0xF1, 0xF6, 0xBB, 0xDE, 0x0F, 0x5F, 0xBE, 
  0x52, 0x90, 0x92, 0xBE, 0xE4, 0x3B, 0x4D, 0xBD, 
  0x6F, 0xBF, 0x60, 0x3E, 0x68, 0x10, 0x55, 0x3E, 
  0xCC, 0xCF, 0x64, 0x3E, 0x76, 0xB3, 0xB3, 0x3D, 
  0xFE, 0x29, 0x49, 0x3E, 0xA4, 0xC5, 0x54, 0x3D, 
  0x61, 0x26, 0xC3, 0xBD, 0xED, 0x39, 0x85, 0x3E, 
  0x03, 0x67, 0xED, 0xBD, 0xF4, 0x9B, 0x69, 0x3E, 
  0xA6, 0x77, 0xFF, 0xFF, 0x10, 0x00, 0x00, 0x00, 
  0x08, 0x00, 0x00, 0x00, 0x1C, 0x00, 0x00, 0x00, 
  0x38, 0x00, 0x00, 0x00, 0x04, 0x00, 0x00, 0x00, 
  0x06, 0x00, 0x00, 0x00, 0x03, 0x00, 0x00, 0x00, 
  0x03, 0x00, 0x00, 0x00, 0x01, 0x00, 0x00, 0x00, 
  0x18, 0x00, 0x00, 0x00, 0x73, 0x65, 0x71, 0x75, 
  0x65, 0x6E, 0x74, 0x69, 0x61, 0x6C, 0x2F, 0x63, 
  0x6F, 0x6E, 0x76, 0x32, 0x64, 0x2F, 0x43, 0x6F, 
  0x6E, 0x76, 0x32, 0x44, 0x00, 0x00, 0x00, 0x00, 
  0xA8, 0x76, 0xFF, 0xFF, 0x86, 0x77, 0xFF, 0xFF, 
  0x04, 0x00, 0x00, 0x00, 0x50, 0x00, 0x00, 0x00, 
  0x6A, 0xBB, 0xC6, 0x3E, 0xEE, 0x48, 0xEB, 0x3D, 
  0x96, 0xA7, 0x32, 0xBF, 0xF9, 0xC6, 0xCD, 0x3E, 
  0x7C, 0x54, 0x12, 0x3E, 0x28, 0xCE, 0x50, 0x3E, 
  0x46, 0xD0, 0x73, 0xBE, 0x5E, 0xE8, 0x59, 0x3D, 
  0xEE, 0x79, 0x4D, 0xBF, 0xD5, 0x3F, 0x25, 0x3F, 
  0xDC, 0x4A, 0x4B, 0xBF, 0x74, 0x67, 0x3A, 0xBF, 
  0x33, 0x0E, 0xF1, 0x3E, 0x4D, 0x84, 0x09, 0x3F, 
  0xB6, 0x93, 0x0C, 0xBF, 0x2C, 0x12, 0x80, 0xBE, 
  0xFF, 0x0A, 0x60, 0xBF, 0x54, 0xE3, 0x3E, 0xBF, 
  0xD2, 0x0B, 0x64, 0x3E, 0xE8, 0x3F, 0x3C, 0x3F, 
  0x4E, 0x78, 0xFF, 0xFF, 0x10, 0x00, 0x00, 0x00, 
  0x07, 0x00, 0x00, 0x00, 0x14, 0x00, 0x00, 0x00, 
  0x30, 0x00, 0x00, 0x00, 0x02, 0x00, 0x00, 0x00, 
  0x04, 0x00, 0x00, 0x00, 0x05, 0x00, 0x00, 0x00, 
  0x19, 0x00, 0x00, 0x00, 0x73, 0x65, 0x71, 0x75, 
  0x65, 0x6E, 0x74, 0x69, 0x61, 0x6C, 0x2F, 0x64, 
  0x65, 0x6E, 0x73, 0x65, 0x5F, 0x31, 0x2F, 0x4D, 
  0x61, 0x74, 0x4D, 0x75, 0x6C, 0x00, 0x00, 0x00, 
  0x48, 0x77, 0xFF, 0xFF, 0x26, 0x78, 0xFF, 0xFF, 
  0x04, 0x00, 0x00, 0x00, 0x10, 0x86, 0x00, 0x00, 
  0x4A, 0x93, 0x84, 0x3C, 0x85, 0xE2, 0x3D, 0x3D, 
  0x3E, 0xE7, 0x0B, 0xBD, 0x13, 0xCF, 0x1C, 0x3D, 
  0xA5, 0xA7, 0x47, 0xBD, 0x69, 0x38, 0xB3, 0x3B, 
  0x64, 0xE4, 0x81, 0xBD, 0x49, 0xCE, 0x45, 0x3D, 
  0xC9, 0xCA, 0x90, 0xBC, 0xE6, 0xBB, 0x6C, 0xBD, 
  0x46, 0xA7, 0x0F, 0xBD, 0xA2, 0x6E, 0x00, 0x3D, 
  0x9A, 0x65, 0x73, 0xBD, 0xD5, 0xAF, 0x63, 0x3D, 
  0xC4, 0x8B, 0x3C, 0xBD, 0x87, 0x8E, 0x64, 0xBB, 
  0xFA, 0xAE, 0x29, 0xBD, 0xB3, 0x86, 0x93, 0x3C, 
  0x98, 0xEA, 0x60, 0xBC, 0x5C, 0xE9, 0x2F, 0x3C, 
  0xA0, 0x54, 0x4A, 0xBC, 0x64, 0x52, 0x9F, 0xB9, 
  0x86, 0x0F, 0x33, 0xBD, 0x94, 0x75, 0xF1, 0x3C, 
  0x7E, 0x95, 0x16, 0xBD, 0x80, 0xB8, 0xAF, 0x3A, 
  0xA0, 0xC7, 0x30, 0x3D, 0x97, 0x31, 0x43, 0x3B, 
  0x0E, 0xF3, 0x98, 0xBC, 0xAF, 0x17, 0x28, 0xBD, 
  0xCE, 0x43, 0xA2, 0xBC, 0xD8, 0x9B, 0x89, 0x3B, 
  0x0E, 0xEC, 0x31, 0xBC, 0x73, 0xF4, 0xC0, 0xBB, 
  0x4C, 0x9F, 0xB2, 0xBC, 0x31, 0x40, 0x08, 0xBD, 
  0x20, 0x61, 0xA6, 0x3C, 0x30, 0xED, 0x47, 0x3B, 
  0x69, 0x02, 0x51, 0xBD, 0xB2, 0x9F, 0x13, 0x3C, 
  0x63, 0xE1, 0x13, 0x3D, 0x5D, 0x47, 0x7D, 0x3B, 
  0x78, 0xB5, 0x2A, 0xBD, 0x00, 0x29, 0xC3, 0xB9, 
  0xEE, 0x16, 0x52, 0xBC, 0xEE, 0x4C, 0x45, 0x3D, 
  0xAD, 0x82, 0x16, 0x3D, 0x63, 0x69, 0x8D, 0x3C, 
  0xB2, 0x4A, 0x81, 0xBD, 0xB3, 0x65, 0x2B, 0x3D, 
  0x92, 0x89, 0x77, 0xBC, 0x56, 0x0F, 0x35, 0xBD, 
  0x58, 0x28, 0x6E, 0xBD, 0x6D, 0x04, 0xBC, 0xBB, 
  0xAA, 0x14, 0xDF, 0xBC, 0xC4, 0x24, 0x39, 0xBC, 
  0xDA, 0x83, 0x1A, 0x3D, 0x93, 0xCE, 0xA1, 0xBC, 
  0x28, 0x7B, 0xB9, 0xBC, 0x09, 0x67, 0x3F, 0xBD, 
  0x22, 0x0F, 0x06, 0xBD, 0x9E, 0x7D, 0x8E, 0xBC, 
  0x9B, 0x2B, 0x8C, 0xBC, 0x3B, 0x9D, 0xF6, 0x3B, 
  0x01, 0x1F, 0x62, 0x3D, 0x4D, 0xCA, 0xAB, 0xBC, 
  0x45, 0xAC, 0x50, 0x3D, 0xA8, 0x2E, 0xA6, 0xBC, 
  0xE3, 0xB4, 0xCE, 0xBC, 0x3D, 0xC1, 0x40, 0xBD, 
  0x88, 0xA5, 0x6E, 0xBD, 0x23, 0x05, 0xD6, 0xBC, 
  0x13, 0x26, 0xB1, 0x3C, 0x46, 0xFF, 0xEB, 0x3C, 
  0xDA, 0x26, 0x41, 0x3D, 0x03, 0x7F, 0x11, 0x3D, 
  0x9E, 0xF3, 0x81, 0x3C, 0xF6, 0x9B, 0xB6, 0x3C, 
  0x0D, 0xB6, 0x1B, 0xBC, 0x08, 0xB7, 0x3D, 0xBD, 
  0xE8, 0x12, 0x0F, 0x3D, 0x03, 0x50, 0xF6, 0xBB, 
  0x7D, 0x30, 0x66, 0x3D, 0xC5, 0x03, 0xAF, 0x3C, 
  0x21, 0xB1, 0x06, 0x3C, 0x9C, 0x64, 0x04, 0xBD, 
  0x7D, 0x66, 0xF3, 0xBC, 0x94, 0xD8, 0x48, 0xBD, 
  0x8F, 0x7E, 0x6D, 0xBD, 0x64, 0x4F, 0x36, 0x3D, 
  0x8B, 0x4B, 0xD0, 0x3C, 0xDF, 0x85, 0xE6, 0xBC, 
  0x58, 0xEF, 0xF5, 0x3C, 0x13, 0xB7, 0x4D, 0xBD, 
  0xDE, 0x87, 0xA3, 0x3C, 0x5D, 0xB0, 0xB4, 0x3C, 
  0xAB, 0xF8, 0x72, 0xB9, 0x21, 0x33, 0x01, 0xBD, 
  0x30, 0xCD, 0xD7, 0x3B, 0x40, 0xAC, 0x32, 0x3C, 
  0x37, 0x1A, 0x34, 0x3D, 0x42, 0x31, 0x37, 0x3D, 
  0x10, 0xD1, 0x16, 0x3C, 0xF4, 0xF9, 0x18, 0xBC, 
  0x83, 0x93, 0x6C, 0xBD, 0x42, 0x0E, 0x89, 0x3C, 
  0x1E, 0x2B, 0x82, 0xBC, 0xF3, 0xB7, 0x78, 0x3C, 
  0x0D, 0x0F, 0x00, 0x3D, 0x51, 0x0E, 0x17, 0x3D, 
  0x47, 0x63, 0x2C, 0x3C, 0x3E, 0x10, 0x3D, 0xBC, 
  0x9E, 0x4C, 0xE0, 0x3C, 0xC8, 0xB3, 0x72, 0xBD, 
  0x0B, 0x33, 0x15, 0xBC, 0xB2, 0xCA, 0xDC, 0x3C, 
  0x36, 0x36, 0xC2, 0x3B, 0x36, 0xC1, 0x65, 0xBD, 
  0xAA, 0x4D, 0x3F, 0xBD, 0xC2, 0x2C, 0x5A, 0xBD, 
  0x5A, 0xFF, 0x82, 0xBD, 0xF4, 0x73, 0x4A, 0xBD, 
  0xBB, 0x25, 0x55, 0xBD, 0x10, 0xA7, 0x78, 0xBD, 
  0x90, 0xBE, 0x3B, 0xBC, 0x60, 0xE1, 0xC1, 0x3C, 
  0xD9, 0x23, 0xA2, 0xBB, 0x48, 0x28, 0x85, 0x3B, 
  0x80, 0x4E, 0x4C, 0xBB, 0x4E, 0x30, 0x72, 0xBD, 
  0xFB, 0x1B, 0x55, 0x3D, 0xA4, 0xD9, 0xDB, 0xBC, 
  0xE9, 0x36, 0x84, 0xBC, 0xFB, 0x76, 0x6F, 0x3D, 
  0xAB, 0x69, 0x0F, 0xBD, 0x93, 0xB3, 0xF7, 0xBC, 
  0xA3, 0x40, 0x3C, 0x3D, 0xD9, 0x2E, 0x11, 0x3D, 
  0x82, 0x50, 0x4A, 0x3D, 0xA8, 0x68, 0xDE, 0x3B, 
  0x8E, 0x63, 0xF8, 0xBB, 0x94, 0xAE, 0x58, 0xBD, 
  0x31, 0x16, 0x40, 0x3D, 0x16, 0x26, 0x56, 0x3D, 
  0x94, 0xAE, 0x9F, 0xBC, 0xE4, 0xC2, 0x9C, 0xBC, 
  0x70, 0xCD, 0x5A, 0xBD, 0x6F, 0xE1, 0x8C, 0x3C, 
  0x20, 0x88, 0x84, 0xBB, 0xF3, 0xF8, 0x38, 0x3C, 
  0xD2, 0x08, 0x64, 0xBD, 0x1C, 0x15, 0x4D, 0xBC, 
  0x99, 0x46, 0x6B, 0xBD, 0x75, 0x9B, 0xF3, 0xBC, 
  0xE4, 0x3A, 0x1D, 0xBD, 0x32, 0xEA, 0x59, 0x3C, 
  0x62, 0xDF, 0xC2, 0x3C, 0x60, 0x87, 0x02, 0xBB, 
  0x59, 0x79, 0x65, 0xBD, 0x4B, 0x68, 0xF3, 0x3C, 
  0x46, 0x8B, 0xAF, 0xBC, 0xF7, 0xD0, 0x20, 0x3D, 
  0x4F, 0xC4, 0x02, 0xBC, 0xB5, 0x5E, 0x4E, 0xBD, 
  0x5F, 0xBA, 0x7E, 0xBB, 0x4D, 0x6D, 0x2E, 0x3C, 
  0xC5, 0x98, 0x6F, 0x3D, 0x89, 0x21, 0x1C, 0xBD, 
  0x67, 0x91, 0x4F, 0xBD, 0xEA, 0xB5, 0x40, 0xBD, 
  0x32, 0x0D, 0x19, 0xBD, 0x86, 0x9D, 0xB4, 0x3C, 
  0x42, 0x9B, 0xB5, 0x3C, 0x0E, 0x8D, 0x6E, 0xBD, 
  0x87, 0xF2, 0xB9, 0x3C, 0xD8, 0xE1, 0x01, 0xBD, 
  0xE8, 0x3B, 0x57, 0xBC, 0x10, 0x2E, 0x29, 0xBC, 
  0x24, 0xD8, 0x6D, 0x3C, 0x42, 0x74, 0x51, 0x3D, 
  0x6E, 0x26, 0x22, 0x3D, 0x5A, 0x8A, 0xD0, 0x3C, 
  0x45, 0xA7, 0x90, 0x3C, 0xD4, 0x37, 0xCD, 0x3C, 
  0xBE, 0xFA, 0x62, 0xBD, 0x9C, 0x51, 0x98, 0x3C, 
  0x94, 0x4A, 0x74, 0xBD, 0x0C, 0x89, 0x3A, 0xBC, 
  0x63, 0x2C, 0x4F, 0xBB, 0xE9, 0x47, 0x24, 0x3D, 
  0xF2, 0x60, 0xA8, 0x3C, 0x57, 0x55, 0x66, 0xBD, 
  0x22, 0x37, 0xCF, 0x3B, 0xE7, 0x1D, 0x51, 0x3D, 
  0xD2, 0xBA, 0xA3, 0xBC, 0x2B, 0x33, 0x13, 0x3D, 
  0xE3, 0x86, 0x68, 0x3D, 0xA4, 0x40, 0x93, 0xBC, 
  0x9E, 0xE0, 0xF0, 0x3C, 0x00, 0x37, 0x99, 0xB9, 
  0xE7, 0x7D, 0xE5, 0xBC, 0xC6, 0x76, 0x3C, 0x3C, 
  0xB9, 0xC0, 0x3B, 0x3D, 0x72, 0xEA, 0x5E, 0xBD, 
  0x40, 0x16, 0xA0, 0xB8, 0x7A, 0xBC, 0x1D, 0xBD, 
  0x01, 0x4C, 0x10, 0x3D, 0x78, 0xBC, 0x61, 0xBD, 
  0xC8, 0x1D, 0x8E, 0xBC, 0x49, 0xA7, 0xAD, 0x3C, 
  0x9D, 0x83, 0xFB, 0x3C, 0x68, 0x87, 0x8C, 0xBC, 
  0x5A, 0xF3, 0x6B, 0xBD, 0x97, 0x83, 0xB8, 0xBC, 
  0x80, 0x26, 0x18, 0xBB, 0xDE, 0xAE, 0xC0, 0xBC, 
  0x5E, 0x24, 0x12, 0xBD, 0x29, 0x1F, 0x53, 0x3D, 
  0x0F, 0x77, 0x04, 0xBC, 0x2F, 0x0C, 0x37, 0x3D, 
  0x6E, 0x3F, 0xD9, 0x3C, 0x99, 0xE9, 0x00, 0x3D, 
  0xCF, 0xFD, 0x04, 0x3B, 0xB8, 0x7B, 0x8F, 0xBC, 
  0x1A, 0x33, 0xD3, 0x3B, 0x17, 0xFA, 0xAB, 0xBC, 
  0x86, 0x13, 0x93, 0x3C, 0x92, 0xA5, 0x0D, 0x3D, 
  0x50, 0xDF, 0xFF, 0x3B, 0x77, 0x07, 0x16, 0xBD, 
  0xBE, 0x76, 0x1E, 0xBD, 0x65, 0xCA, 0x46, 0x3C, 
  0x2C, 0xDB, 0x19, 0xBD, 0xD4, 0xA8, 0x10, 0xBB, 
  0x4A, 0xA1, 0x12, 0x3B, 0x2D, 0x93, 0x6D, 0x3D, 
  0x54, 0xFE, 0x65, 0xBD, 0xDC, 0xD5, 0x80, 0xBD, 
  0x41, 0x88, 0x5A, 0x3D, 0x6C, 0x94, 0x78, 0x3C, 
  0x67, 0xF3, 0xB1, 0xBC, 0x80, 0xC3, 0xEA, 0xB9, 
  0x1B, 0x1F, 0xCB, 0xBC, 0x72, 0xDD, 0x75, 0xBD, 
  0x10, 0x31, 0x5B, 0xBB, 0x6B, 0xAD, 0x73, 0xBD, 
  0xD4, 0x53, 0xE2, 0xBC, 0xD8, 0xEF, 0xA3, 0xBB, 
  0xB7, 0x4A, 0x08, 0xBD, 0x54, 0x2D, 0x20, 0x3C, 
  0x6E, 0xA3, 0xDB, 0x3C, 0xF3, 0x87, 0x2C, 0x3D, 
  0x6F, 0xC8, 0x34, 0xBD, 0xA4, 0x4A, 0xD3, 0xBC, 
  0x70, 0x0A, 0xEB, 0xBC, 0x6B, 0x81, 0x3B, 0xBD, 
  0x76, 0x36, 0xDC, 0x3C, 0x95, 0xD7, 0x57, 0xBD, 
  0x38, 0xC4, 0x5C, 0xBD, 0x3D, 0x36, 0x08, 0x3D, 
  0x79, 0x3A, 0x05, 0xBD, 0x62, 0x67, 0x4D, 0xBD, 
  0x96, 0x9F, 0xFF, 0x3C, 0xF2, 0xCB, 0x80, 0xBD, 
  0x4B, 0x06, 0xD7, 0x3C, 0xD8, 0xB8, 0xC1, 0xBB, 
  0x99, 0x86, 0x7E, 0x39, 0xD5, 0xEB, 0x0C, 0x3D, 
  0x48, 0x85, 0xCF, 0xBC, 0x30, 0x47, 0xD9, 0xBC, 
  0x9D, 0xD3, 0x90, 0x3C, 0xAD, 0x24, 0x60, 0xBD, 
  0x34, 0xE2, 0x2E, 0x3D, 0xBF, 0x14, 0x1C, 0x3D, 
  0x01, 0x0C, 0x5F, 0x3D, 0xAD, 0xAE, 0x25, 0x3D, 
  0x67, 0xD1, 0x8B, 0xBC, 0x62, 0x29, 0x55, 0xBD, 
  0x55, 0x2B, 0x74, 0x3C, 0x25, 0x03, 0x41, 0x3D, 
  0x53, 0x5E, 0xEE, 0xBC, 0x10, 0x72, 0x39, 0xBC, 
  0x65, 0x5C, 0x38, 0x3D, 0xF0, 0x7C, 0x6E, 0xBD, 
  0xE2, 0xF9, 0x40, 0x3A, 0xB1, 0xB6, 0xCB, 0x3C, 
  0xB2, 0xA4, 0x3F, 0xBD, 0xB0, 0x03, 0xBD, 0xBB, 
  0xEA, 0xD7, 0x09, 0x3C, 0xDB, 0xC2, 0x1A, 0x3D, 
  0x9C, 0x42, 0xFB, 0x3B, 0x5B, 0x0B, 0x58, 0x3D, 
  0x4A, 0x81, 0xDA, 0xBC, 0x4B, 0x78, 0xCA, 0xBC, 
  0x34, 0x0E, 0xB3, 0xBC, 0x94, 0xB0, 0x13, 0x3C, 
  0xCF, 0xD3, 0x35, 0x3D, 0xCF, 0x90, 0xCB, 0xBC, 
  0xE6, 0xA8, 0x02, 0xBD, 0x4F, 0xC5, 0x58, 0xBD, 
  0x61, 0x88, 0x20, 0xBD, 0x02, 0xD6, 0xF7, 0x3C, 
  0xC5, 0xEB, 0x89, 0x3C, 0xF2, 0x7D, 0x4C, 0x3D, 
  0x02, 0x6F, 0x97, 0xBC, 0xBB, 0x15, 0x58, 0x3C, 
  0x64, 0xA7, 0xAA, 0xBC, 0x7E, 0x0A, 0x80, 0x3C, 
  0x00, 0x94, 0x51, 0x3C, 0xD6, 0x36, 0x82, 0x3A, 
  0x79, 0xC3, 0x5C, 0xBD, 0x6A, 0xEF, 0x44, 0xBC, 
  0x88, 0xFF, 0x4F, 0x38, 0x80, 0x68, 0x29, 0x3B, 
  0xC0, 0x6A, 0x40, 0xBD, 0xB1, 0xE0, 0x95, 0x3C, 
  0x79, 0x52, 0x44, 0x3D, 0xA2, 0x17, 0x75, 0xBD, 
  0x60, 0x48, 0x4B, 0x3D, 0x46, 0xFC, 0xC0, 0x3C, 
  0x75, 0x5A, 0x13, 0x3D, 0x78, 0x2F, 0x85, 0xBD, 
  0x31, 0x29, 0x52, 0x3D, 0x10, 0x74, 0xEE, 0xBC, 
  0xE2, 0x17, 0x0C, 0xBD, 0x34, 0x8D, 0x53, 0x3C, 
  0x0F, 0x2C, 0xD5, 0x3C, 0xD8, 0x44, 0x81, 0xBD, 
  0xA3, 0x8A, 0x19, 0x3D, 0x47, 0xDB, 0x80, 0xBD, 
  0x6F, 0x4B, 0x05, 0x3C, 0x67, 0x3B, 0x69, 0x3D, 
  0xC3, 0x0F, 0x46, 0x3D, 0xF6, 0xF8, 0x36, 0x3C, 
  0xAC, 0xBB, 0x6F, 0xBC, 0x27, 0xB7, 0x1F, 0xBD, 
  0xBA, 0x5E, 0x77, 0xBD, 0xE5, 0x02, 0x3F, 0x3D, 
  0x7A, 0x0F, 0x5C, 0xBC, 0x4C, 0xAB, 0x82, 0xBD, 
  0xD0, 0x80, 0x9A, 0xBC, 0x6C, 0xD9, 0xD0, 0xBC, 
  0xED, 0x06, 0x7B, 0x3C, 0x08, 0xC8, 0x85, 0xBC, 
  0x19, 0xFA, 0x9D, 0xBC, 0x9B, 0x15, 0xAA, 0x3C, 
  0x6F, 0x40, 0x66, 0xBD, 0xA3, 0xF8, 0xAC, 0xBA, 
  0x01, 0xD1, 0x58, 0xBD, 0xEC, 0xCF, 0x75, 0xBC, 
  0xA7, 0x09, 0x47, 0x3D, 0x87, 0x8F, 0x31, 0x3D, 
  0xD8, 0x41, 0x9F, 0x3B, 0x92, 0x10, 0xCD, 0xBC, 
  0xD5, 0x92, 0x54, 0x3D, 0x90, 0xA8, 0x99, 0xBB, 
  0x33, 0x52, 0xC3, 0x3C, 0xA6, 0x46, 0x7B, 0x3C, 
  0x41, 0x8A, 0x3C, 0xBD, 0xF0, 0x02, 0x19, 0xBD, 
  0xDE, 0x7A, 0x8B, 0x3C, 0x10, 0xA5, 0x02, 0xBD, 
  0xA1, 0x4D, 0xAC, 0xBC, 0xF1, 0x82, 0x9B, 0xBA, 
  0x3F, 0x9A, 0x08, 0xBD, 0x50, 0x4B, 0x6B, 0xBD, 
  0x49, 0x5A, 0x3C, 0x3C, 0xD7, 0x93, 0x3A, 0xBD, 
  0xBF, 0x1E, 0x2A, 0x3C, 0x2F, 0x97, 0xFD, 0x3C, 
  0xD4, 0xAE, 0x6E, 0xBC, 0x8A, 0xF0, 0x5C, 0xBD, 
  0xA3, 0x42, 0x41, 0xBD, 0x5F, 0x2A, 0x35, 0x3D, 
  0x85, 0x88, 0x33, 0xBD, 0x58, 0xBB, 0x03, 0x3D, 
  0xA2, 0x71, 0x4E, 0xBD, 0x8E, 0xAD, 0xCA, 0x3C, 
  0x8B, 0xBF, 0x5F, 0x3C, 0x1B, 0x43, 0x19, 0x3D, 
  0x1B, 0xC0, 0x46, 0x3D, 0x13, 0x83, 0xCD, 0xBB, 
  0xA0, 0x4D, 0x1E, 0xBD, 0x58, 0x78, 0xC0, 0xBC, 
  0x8B, 0xA9, 0x12, 0x3D, 0xE8, 0x3D, 0x8E, 0x3B, 
  0xFB, 0xF8, 0x37, 0x3C, 0x80, 0x08, 0xA8, 0xBB, 
  0xF1, 0x41, 0x22, 0xBD, 0xAF, 0xB4, 0xFA, 0x3C, 
  0x25, 0x8B, 0xB1, 0xBC, 0x55, 0xF2, 0x43, 0xBD, 
  0xFB, 0xC0, 0xAE, 0x3C, 0xAE, 0x16, 0xB5, 0xBC, 
  0xE7, 0x43, 0x76, 0xBD, 0xFB, 0xB3, 0xF7, 0x3C, 
  0xC9, 0x07, 0x08, 0x3D, 0x72, 0x3C, 0x85, 0x3C, 
  0xEA, 0x19, 0xC2, 0x3B, 0xE9, 0x24, 0x48, 0xBD, 
  0xA5, 0x50, 0x69, 0x3D, 0x50, 0x73, 0xD5, 0xBB, 
  0xC2, 0xCE, 0xFF, 0x3C, 0xB3, 0x9A, 0x17, 0xBD, 
  0xA6, 0xB0, 0xC3, 0xBC, 0x79, 0x02, 0x48, 0xBD, 
  0x59, 0xFA, 0x60, 0xBD, 0x97, 0x4B, 0xD1, 0xBC, 
  0xD9, 0x62, 0x4F, 0x3D, 0xD1, 0x76, 0x1A, 0x3D, 
  0x27, 0x8A, 0x6F, 0xBD, 0x7B, 0x3D, 0x5B, 0x3C, 
  0xD1, 0xAE, 0x4E, 0x3D, 0x8C, 0x39, 0x3B, 0xBD, 
  0xFE, 0x74, 0x39, 0xBD, 0x31, 0x12, 0x4E, 0x3D, 
  0xEF, 0xB7, 0x40, 0xBD, 0x3E, 0xF3, 0x2A, 0xBC, 
  0x74, 0x8F, 0x53, 0x3C, 0xF9, 0x4A, 0x24, 0xBD, 
  0x63, 0x5D, 0x52, 0xBD, 0xE2, 0x9B, 0x48, 0x3D, 
  0x4E, 0x25, 0x3F, 0xBD, 0x37, 0xE7, 0x59, 0xBC, 
  0x36, 0xEF, 0xCF, 0x3C, 0x83, 0xB6, 0x47, 0xBC, 
  0x54, 0xA0, 0xB2, 0xBC, 0x53, 0x57, 0x40, 0xBD, 
  0x89, 0xE2, 0x67, 0x3D, 0x00, 0x13, 0x09, 0xB9, 
  0xE7, 0x24, 0x2B, 0xBD, 0xDF, 0x62, 0x09, 0x3D, 
  0x9E, 0x9A, 0x06, 0xBD, 0xB2, 0x3D, 0x01, 0xBD, 
  0xF8, 0xE1, 0xAC, 0xBB, 0xDD, 0xC0, 0x30, 0x3D, 
  0x23, 0x99, 0x4F, 0x3D, 0x1D, 0xAE, 0x3B, 0x3C, 
  0xF7, 0xC3, 0x48, 0xBD, 0xA2, 0x76, 0x32, 0x3D, 
  0x80, 0x29, 0xB4, 0x3A, 0x7E, 0x01, 0x71, 0xBD, 
  0x0C, 0x47, 0x1E, 0x3C, 0x48, 0xF1, 0xE8, 0xBC, 
  0x6F, 0x63, 0x5F, 0x3D, 0x54, 0x7A, 0xB2, 0x3B, 
  0x18, 0xAA, 0x3C, 0xBD, 0x8C, 0x99, 0x46, 0xBD, 
  0xD7, 0x6C, 0x00, 0xBD, 0x60, 0xE6, 0xD1, 0x3A, 
  0x61, 0x09, 0xAF, 0x3C, 0xAA, 0x1F, 0xC9, 0xBC, 
  0x88, 0xEF, 0xFB, 0xBC, 0x58, 0x7C, 0x3F, 0xBD, 
  0x59, 0x95, 0x13, 0x3D, 0x29, 0x02, 0x21, 0xBD, 
  0xA0, 0xEE, 0x70, 0xBD, 0xD9, 0x1C, 0xA0, 0x3C, 
  0x40, 0x6B, 0xD4, 0x3A, 0xDA, 0x21, 0xC6, 0x3C, 
  0x12, 0x97, 0xCA, 0x3C, 0xBF, 0x1D, 0x7F, 0xBD, 
  0xC9, 0xE9, 0xC2, 0xBC, 0x27, 0x99, 0x45, 0x3D, 
  0xDA, 0x7A, 0x38, 0xBD, 0x2B, 0x8A, 0x35, 0xBB, 
  0x2C, 0x74, 0x27, 0x3C, 0x53, 0x3F, 0x40, 0xBD, 
  0x35, 0x7F, 0x4A, 0x3D, 0xA4, 0x90, 0x7E, 0xBD, 
  0xDE, 0xE8, 0x76, 0xBC, 0xA0, 0x27, 0x80, 0xBD, 
  0x7A, 0x8E, 0x1A, 0xBD, 0x47, 0x13, 0x17, 0xBD, 
  0xCE, 0xA6, 0x47, 0x3D, 0x00, 0x6F, 0x83, 0xBD, 
  0x3B, 0x88, 0x58, 0xBD, 0xFD, 0x07, 0x1F, 0x3D, 
  0x16, 0xA5, 0x58, 0xBD, 0x30, 0x7F, 0xB9, 0x3A, 
  0xD5, 0x51, 0xF9, 0xBC, 0x33, 0xA5, 0x29, 0x3C, 
  0x2B, 0xBD, 0x14, 0xBD, 0xB0, 0xD3, 0x21, 0xBC, 
  0xFA, 0x08, 0xEA, 0x3C, 0xB3, 0x2B, 0x5D, 0xBD, 
  0x68, 0x38, 0x8B, 0x3C, 0x2F, 0xF7, 0x73, 0xBD, 
  0x90, 0x27, 0x53, 0x3D, 0xBB, 0x44, 0x83, 0xBD, 
  0xFB, 0x7B, 0x24, 0x3D, 0xA7, 0xC7, 0x81, 0xBD, 
  0x98, 0xC2, 0xDA, 0x3C, 0x99, 0xEF, 0x71, 0x3C, 
  0x5F, 0x2D, 0x2F, 0x3D, 0xC9, 0xA2, 0x73, 0xBD, 
  0x8A, 0x81, 0x8E, 0x3C, 0x27, 0xB1, 0x84, 0xBC, 
  0x07, 0xA9, 0xEA, 0xBC, 0x95, 0xF4, 0x41, 0x3D, 
  0xB4, 0x22, 0x0B, 0xBD, 0xCC, 0x10, 0x47, 0x3D, 
  0xB0, 0x4E, 0x3B, 0xBB, 0xF8, 0xF3, 0xEF, 0x3C, 
  0x26, 0x6F, 0x42, 0xBB, 0x1B, 0xA0, 0x5C, 0x3D, 
  0x5E, 0x34, 0xFB, 0xBC, 0x94, 0xF0, 0x58, 0xBC, 
  0xA4, 0x9C, 0x7C, 0xBC, 0xD6, 0x42, 0xF3, 0x3B, 
  0x1A, 0x50, 0xDA, 0x3C, 0xD0, 0xD4, 0x68, 0xBB, 
  0x78, 0xAA, 0x04, 0xBD, 0x93, 0xB5, 0xA9, 0xBB, 
  0x12, 0xFA, 0xCC, 0xBC, 0xC4, 0xD7, 0x10, 0xBD, 
  0x83, 0x50, 0x5F, 0xBC, 0x5E, 0x8E, 0xD7, 0x3C, 
  0xF5, 0x98, 0x50, 0x3D, 0x81, 0xA6, 0x6F, 0xBD, 
  0xE0, 0x57, 0xB9, 0x3A, 0x42, 0x15, 0x13, 0xBC, 
  0x44, 0xAA, 0x0C, 0x3D, 0x40, 0x79, 0x04, 0x3B, 
  0x87, 0x9D, 0x8D, 0x3B, 0xCD, 0x33, 0x5C, 0xBC, 
  0x90, 0xAC, 0x64, 0xBB, 0x13, 0x84, 0x22, 0x3D, 
  0xA2, 0xBF, 0x11, 0xBD, 0x62, 0x08, 0x04, 0xBD, 
  0xF2, 0xE1, 0x36, 0x3C, 0x73, 0xF0, 0xB7, 0xBC, 
  0x14, 0x12, 0x6C, 0x3C, 0x19, 0x7C, 0x29, 0xBD, 
  0xB4, 0x21, 0x06, 0xBC, 0xB8, 0x27, 0x22, 0xBC, 
  0x17, 0x58, 0xDE, 0xB8, 0xC5, 0xA2, 0x55, 0x3C, 
  0xDA, 0x6B, 0xFA, 0x3C, 0x63, 0xF5, 0x70, 0xBC, 
  0x06, 0x87, 0x1C, 0xBD, 0x9F, 0xE9, 0x50, 0xBD, 
  0x92, 0x63, 0xC7, 0x3C, 0x2C, 0x6F, 0x1F, 0xBD, 
  0xB6, 0x63, 0x04, 0xBD, 0xBF, 0x2F, 0x4C, 0x3D, 
  0xC1, 0x5E, 0x38, 0x3C, 0x17, 0x27, 0x5E, 0x3D, 
  0x83, 0x0D, 0x36, 0x3B, 0x16, 0x87, 0xDC, 0xBC, 
  0xEA, 0x06, 0x87, 0xBC, 0x87, 0x03, 0x72, 0x3C, 
  0x6F, 0xDF, 0x76, 0xBD, 0x1B, 0xFC, 0xEE, 0x3C, 
  0x08, 0x45, 0x89, 0xBB, 0x01, 0xD7, 0x23, 0xBD, 
  0xB5, 0x64, 0x4E, 0x3D, 0xD1, 0xE0, 0x36, 0xBD, 
  0xC4, 0xED, 0x36, 0xBD, 0xFD, 0x41, 0x0C, 0xBD, 
  0xA3, 0x12, 0x40, 0x3D, 0x93, 0xE2, 0x2B, 0xBD, 
  0x4B, 0x08, 0x04, 0xBD, 0xAC, 0x27, 0x5D, 0x3C, 
  0xDA, 0x6A, 0xA1, 0x3C, 0xF6, 0xEA, 0x67, 0xBD, 
  0xDD, 0x11, 0x57, 0xBD, 0xFB, 0x00, 0x26, 0x3D, 
  0x43, 0xBE, 0xA2, 0xBC, 0x34, 0x75, 0x65, 0xBC, 
  0xC7, 0x87, 0x34, 0x3D, 0x3A, 0x1D, 0x18, 0x3D, 
  0xAD, 0xA3, 0x35, 0x3D, 0x08, 0x08, 0x50, 0x3D, 
  0x56, 0x3F, 0x4F, 0x3D, 0x26, 0xC1, 0x89, 0xBC, 
  0x92, 0x82, 0xDB, 0x3C, 0x62, 0x93, 0x48, 0xBD, 
  0xEB, 0xD0, 0x61, 0x3D, 0xE3, 0x5B, 0x71, 0xBD, 
  0xE4, 0x62, 0xCF, 0xBC, 0x2B, 0xD4, 0x61, 0x3D, 
  0x1E, 0xCA, 0x18, 0xBD, 0x0D, 0x31, 0x46, 0x3D, 
  0x21, 0x0C, 0x3B, 0xBD, 0x25, 0x7D, 0x5A, 0xBB, 
  0x4B, 0xE3, 0x14, 0xBB, 0xCC, 0xF6, 0x2E, 0x3C, 
  0x77, 0x70, 0x0C, 0xBD, 0x49, 0xA9, 0xAD, 0xBC, 
  0x5E, 0xC4, 0x96, 0xBC, 0x65, 0xC1, 0x43, 0x3D, 
  0x02, 0x42, 0x43, 0x3D, 0x78, 0xEF, 0x70, 0xBD, 
  0x58, 0xA1, 0x5C, 0xBD, 0xC2, 0x4C, 0xDF, 0xBC, 
  0xE9, 0x37, 0x70, 0xBD, 0x52, 0x91, 0x32, 0x3D, 
  0xB3, 0x45, 0x13, 0xBD, 0x2F, 0x28, 0x13, 0x3D, 
  0xE4, 0xC4, 0x25, 0xBD, 0x44, 0x5F, 0x21, 0xBD, 
  0x08, 0x54, 0xCA, 0x3B, 0x52, 0xF4, 0xA1, 0x3C, 
  0x4A, 0x2E, 0xB5, 0xBB, 0x07, 0x91, 0xA7, 0xBC, 
  0xA0, 0x38, 0x2C, 0xBB, 0xC2, 0xF2, 0x04, 0x3D, 
  0xF0, 0x19, 0x71, 0xBB, 0x31, 0x1B, 0x02, 0xBD, 
  0x62, 0x14, 0x7C, 0xBD, 0x1A, 0xAC, 0x6C, 0xBB, 
  0x17, 0x55, 0x47, 0x3D, 0xF2, 0xD4, 0x48, 0x3D, 
  0x80, 0xC7, 0xF0, 0x39, 0xD4, 0x20, 0x44, 0xBD, 
  0x60, 0x92, 0xBF, 0x3C, 0x0D, 0x85, 0x2D, 0x3D, 
  0x86, 0x74, 0xA4, 0xBC, 0x24, 0xDF, 0x24, 0xBD, 
  0x0C, 0xEB, 0x89, 0xBC, 0xA8, 0x38, 0x69, 0xBD, 
  0x5C, 0xB5, 0x07, 0x3C, 0x93, 0x1F, 0xDA, 0xBC, 
  0x2D, 0x43, 0xA6, 0xBC, 0xED, 0xB6, 0x45, 0xBD, 
  0x02, 0x8E, 0x92, 0x3C, 0x81, 0x8E, 0x5D, 0xBB, 
  0xB7, 0xEA, 0xBF, 0x3C, 0x97, 0xA0, 0x56, 0xBD, 
  0xF1, 0x3C, 0x76, 0xBD, 0xAC, 0xFD, 0x8F, 0xBC, 
  0xCC, 0x83, 0x29, 0x3D, 0xA6, 0x0D, 0x4D, 0xBD, 
  0xA8, 0xF2, 0x8F, 0x3C, 0x30, 0x5E, 0x90, 0x3C, 
  0x44, 0xDB, 0xE1, 0x3C, 0xFB, 0xD4, 0xEA, 0x3A, 
  0x51, 0xA0, 0x75, 0xBD, 0x0B, 0xCD, 0x44, 0x3B, 
  0x9A, 0x97, 0xBB, 0x3C, 0xD4, 0x7C, 0x9C, 0x3C, 
  0x04, 0xE9, 0x0A, 0x3D, 0x0B, 0xC1, 0x33, 0x3D, 
  0x59, 0xE2, 0xF9, 0x3B, 0xF9, 0xE0, 0x28, 0xBD, 
  0x83, 0xEE, 0x07, 0x3D, 0xB8, 0x43, 0xE8, 0xBB, 
  0x43, 0xD1, 0x28, 0xBD, 0x32, 0x08, 0xF9, 0x3B, 
  0x15, 0x28, 0x6F, 0xBD, 0xEE, 0xC2, 0xA8, 0x3C, 
  0x50, 0xE3, 0x32, 0xBB, 0x16, 0x27, 0x1D, 0xBC, 
  0x03, 0x15, 0x03, 0x3D, 0xB7, 0xD9, 0x84, 0xBD, 
  0x1A, 0x75, 0xF7, 0x3B, 0xF0, 0x16, 0x4C, 0xBD, 
  0xCB, 0x6C, 0x04, 0x3D, 0xA9, 0x7A, 0x2D, 0x3D, 
  0xAC, 0x10, 0xB3, 0xBC, 0xFD, 0x4D, 0x08, 0x3D, 
  0xE2, 0xB3, 0x18, 0xBC, 0xC3, 0xAF, 0xDC, 0x3A, 
  0x5E, 0xF3, 0xF3, 0xBC, 0x9E, 0x78, 0x8E, 0xBC, 
  0xD4, 0x28, 0x0B, 0xBD, 0x90, 0x5A, 0x92, 0xBC, 
  0xCD, 0xAD, 0xF5, 0x3C, 0x2A, 0x8E, 0x79, 0xBA, 
  0xD7, 0xB7, 0x4A, 0x3D, 0xDA, 0xB0, 0x83, 0xBD, 
  0x05, 0x4B, 0x39, 0x3D, 0xB5, 0xDA, 0x4F, 0xBD, 
  0x94, 0x41, 0xA3, 0x3B, 0x3F, 0x2E, 0x10, 0xBC, 
  0x17, 0x20, 0xEB, 0xBC, 0x1B, 0x18, 0xA6, 0xBB, 
  0x94, 0xA2, 0xAF, 0x3C, 0xF7, 0x62, 0x30, 0x3D, 
  0x78, 0x83, 0x45, 0x3D, 0x18, 0xC9, 0x35, 0xBC, 
  0x31, 0xEE, 0x35, 0x3D, 0xAF, 0x7A, 0x27, 0x3B, 
  0xB9, 0xB2, 0x11, 0xBD, 0xE6, 0xAE, 0xFA, 0x3C, 
  0x86, 0x20, 0x76, 0xBD, 0x65, 0x9D, 0x29, 0x3C, 
  0xD3, 0xD5, 0x6E, 0xBD, 0x6F, 0x40, 0x97, 0x3C, 
  0x6C, 0x60, 0x81, 0xBD, 0xC0, 0xF4, 0x53, 0x3B, 
  0xD1, 0x34, 0xCA, 0xBC, 0xEA, 0x51, 0x2C, 0xBD, 
  0x22, 0x4B, 0x9B, 0xBB, 0x8F, 0x68, 0x69, 0xBD, 
  0x38, 0x2F, 0x29, 0x3D, 0x9D, 0x50, 0x0A, 0xBD, 
  0x74, 0x7A, 0x88, 0x3C, 0xCB, 0x6F, 0x27, 0x3C, 
  0x9F, 0x42, 0x3A, 0xBC, 0x71, 0x9E, 0xCD, 0x3B, 
  0x4F, 0x50, 0xAF, 0xBC, 0x45, 0x45, 0x3B, 0x3D, 
  0xD3, 0xCF, 0x9F, 0xBC, 0xAC, 0x4A, 0x4C, 0x3D, 
  0x3F, 0xE5, 0xBD, 0xBA, 0x91, 0x2D, 0xE8, 0xBC, 
  0x0E, 0xDB, 0x0F, 0x3C, 0xE9, 0x93, 0x3C, 0x3D, 
  0x38, 0x1A, 0x24, 0x3D, 0x3F, 0xFA, 0x45, 0xBD, 
  0x72, 0xFF, 0x28, 0xBD, 0xE2, 0x4F, 0x88, 0x3B, 
  0xB7, 0x6A, 0x26, 0x3B, 0x99, 0xF5, 0x4E, 0xBD, 
  0xBF, 0x4E, 0x4F, 0xBB, 0x3F, 0x01, 0x53, 0xBC, 
  0x45, 0x35, 0xA7, 0xBC, 0x71, 0xCE, 0x5D, 0x3D, 
  0x04, 0x42, 0x70, 0xBD, 0x9A, 0xA6, 0x94, 0xBC, 
  0xA8, 0xF6, 0x45, 0x3D, 0xB6, 0x6A, 0x22, 0x3D, 
  0xEE, 0x1A, 0xF1, 0x3C, 0x09, 0x96, 0x9C, 0x3C, 
  0xC6, 0x92, 0x88, 0x3C, 0x01, 0x93, 0x7B, 0xBD, 
  0x20, 0xC9, 0x06, 0x3B, 0x32, 0x7D, 0xAA, 0x3C, 
  0xC7, 0x10, 0xBD, 0x3B, 0x04, 0x31, 0x50, 0xBD, 
  0x72, 0x36, 0xB7, 0xBC, 0x77, 0x58, 0xBA, 0xBC, 
  0xEC, 0x4B, 0x6A, 0x3C, 0x18, 0xD4, 0x11, 0xBC, 
  0x43, 0x03, 0x7B, 0x3C, 0x6A, 0xBA, 0xC4, 0x3C, 
  0x82, 0xD2, 0x43, 0xBD, 0x74, 0x7B, 0x01, 0xBC, 
  0x79, 0x31, 0x5D, 0xBD, 0x84, 0xBF, 0x92, 0x3C, 
  0x45, 0xA5, 0x0F, 0xBD, 0x6C, 0x2D, 0x07, 0xBD, 
  0x07, 0x73, 0x3B, 0x3D, 0xE1, 0x39, 0xF7, 0x3C, 
  0xB7, 0x0E, 0x0F, 0x3D, 0x84, 0xD5, 0xDD, 0xBC, 
  0x5A, 0x8E, 0x85, 0xBC, 0xEC, 0x74, 0x40, 0xBC, 
  0x82, 0x79, 0xB2, 0xBC, 0x08, 0xAC, 0x0B, 0x3D, 
  0xEB, 0x7F, 0x22, 0x3D, 0x52, 0x26, 0xEA, 0x3C, 
  0xAB, 0x04, 0xE0, 0xB8, 0x61, 0xF0, 0x3D, 0x3D, 
  0x7B, 0x29, 0x3D, 0x3D, 0x2E, 0x75, 0x63, 0xBC, 
  0x7F, 0xFC, 0xA0, 0x3C, 0x8A, 0xFE, 0x89, 0xBC, 
  0xAA, 0x47, 0xE3, 0xBC, 0xF5, 0xE0, 0x6D, 0x3D, 
  0xA5, 0x2E, 0xEB, 0x3C, 0x70, 0x75, 0x14, 0xBD, 
  0x8D, 0x3C, 0x46, 0xBC, 0x08, 0x92, 0x39, 0xBD, 
  0x86, 0x38, 0xB7, 0xBC, 0x6E, 0x61, 0x03, 0x3D, 
  0xAA, 0x55, 0x27, 0xBD, 0x41, 0x79, 0xAB, 0x3C, 
  0xCF, 0x25, 0x81, 0x3C, 0xCC, 0x56, 0x16, 0x3D, 
  0xBD, 0xD3, 0x67, 0xBD, 0x9F, 0xE5, 0x30, 0x3D, 
  0xDF, 0xA8, 0x12, 0x3D, 0x72, 0xFE, 0x28, 0x3D, 
  0xF2, 0x9A, 0x83, 0xBC, 0x3E, 0x7F, 0x6D, 0xBD, 
  0x24, 0x95, 0xE9, 0x3C, 0x62, 0x89, 0x32, 0x3D, 
  0x77, 0x61, 0x70, 0x3D, 0x30, 0xB3, 0x71, 0x3C, 
  0xB9, 0x71, 0x39, 0x3D, 0x21, 0x4B, 0x51, 0xBD, 
  0x8A, 0x7B, 0x2C, 0xBC, 0x38, 0xDE, 0xDF, 0x3C, 
  0xDD, 0x98, 0x2B, 0xBD, 0x56, 0x35, 0x3E, 0x3D, 
  0xFB, 0x2C, 0x71, 0xBD, 0xAB, 0xFF, 0x80, 0x3B, 
  0xB6, 0xDB, 0x7B, 0xBD, 0x7E, 0x19, 0x4C, 0xBD, 
  0x79, 0x45, 0x2F, 0xBD, 0xB6, 0x8B, 0xB3, 0xBC, 
  0xE9, 0xC4, 0x7E, 0xBD, 0x40, 0x70, 0x7E, 0xBD, 
  0x80, 0xDF, 0x6E, 0xBD, 0x49, 0x19, 0x4E, 0x3D, 
  0x24, 0x9D, 0x2F, 0x3C, 0x60, 0x93, 0xE3, 0xBB, 
  0x1E, 0x19, 0x50, 0xBC, 0x93, 0x1D, 0x45, 0x3D, 
  0xE0, 0x41, 0xA7, 0xBB, 0x6F, 0x3E, 0x45, 0xBB, 
  0x84, 0xB2, 0x39, 0x3C, 0x20, 0x1E, 0x56, 0x3B, 
  0xE9, 0xAF, 0x8C, 0x3B, 0x73, 0x21, 0xEA, 0x3C, 
  0x0F, 0xD6, 0x44, 0x3D, 0xDF, 0x3A, 0x1F, 0xBD, 
  0x19, 0xDD, 0xC4, 0xBC, 0x90, 0x0A, 0x1F, 0xBC, 
  0x1E, 0xFA, 0x01, 0x3C, 0x58, 0xA3, 0x46, 0x3D, 
  0xF7, 0x34, 0x15, 0x3D, 0xE1, 0xE1, 0x8B, 0xBB, 
  0xDE, 0xC0, 0x1A, 0xBD, 0x38, 0xB6, 0x20, 0xBD, 
  0x52, 0xAE, 0x42, 0xBB, 0xA7, 0xC0, 0x61, 0xBD, 
  0x52, 0xAD, 0xDB, 0xBC, 0x2A, 0xB9, 0x5A, 0xBC, 
  0xDB, 0xA8, 0x87, 0xBC, 0x0A, 0x93, 0x80, 0xBD, 
  0xBB, 0xB9, 0x81, 0xBD, 0xDF, 0x6C, 0xFE, 0x3C, 
  0xE7, 0xEE, 0xEA, 0xBC, 0xF7, 0x4C, 0xE7, 0x3C, 
  0x6C, 0xD7, 0xD5, 0x3B, 0x8D, 0x03, 0x22, 0xBD, 
  0x22, 0x47, 0x7B, 0xBA, 0x33, 0x8E, 0x3F, 0xBD, 
  0x19, 0xDA, 0x39, 0xBD, 0x47, 0x86, 0x7C, 0xBD, 
  0x1D, 0x09, 0x15, 0xBD, 0x6A, 0x0F, 0x1B, 0xBD, 
  0xB8, 0x62, 0x50, 0x3D, 0x87, 0x26, 0xF4, 0x3C, 
  0x1C, 0xEA, 0x98, 0xBC, 0xF6, 0x65, 0xDD, 0x3C, 
  0x15, 0xC6, 0x6F, 0xBD, 0x0D, 0xC7, 0x3D, 0xBC, 
  0x48, 0x3D, 0xF5, 0xBB, 0xB0, 0x85, 0x67, 0x3B, 
  0x94, 0x47, 0x09, 0xBC, 0xD1, 0x8C, 0xDD, 0x3C, 
  0xD8, 0xF7, 0x96, 0xBB, 0x14, 0xE4, 0x4B, 0x3D, 
  0x96, 0xAB, 0x12, 0x3C, 0x2E, 0xDB, 0xD9, 0x3C, 
  0x72, 0xFF, 0xD5, 0x3C, 0xEE, 0x8B, 0x00, 0x3D, 
  0x95, 0x0B, 0x28, 0x3D, 0xFF, 0x4E, 0x45, 0x3D, 
  0xF6, 0xB1, 0xA2, 0x3C, 0x5C, 0x98, 0x64, 0x3C, 
  0x50, 0xB8, 0x0F, 0x3B, 0x64, 0xF9, 0x4E, 0x3C, 
  0x3C, 0xE3, 0x1E, 0x3C, 0x05, 0xE6, 0x34, 0x3D, 
  0x38, 0xE7, 0xAF, 0x3B, 0x80, 0xF2, 0x96, 0xBA, 
  0x12, 0xB3, 0x26, 0xBB, 0x09, 0xEC, 0x1D, 0x3D, 
  0x15, 0x2B, 0x63, 0x3D, 0xBB, 0xB1, 0x40, 0x3D, 
  0x12, 0x7C, 0xD6, 0x3C, 0x20, 0x42, 0x55, 0xBD, 
  0xA6, 0x86, 0x4B, 0xBD, 0xC6, 0xE4, 0xAD, 0xBC, 
  0xC7, 0xFC, 0x0D, 0xBD, 0x21, 0x6C, 0x8E, 0xBC, 
  0xA8, 0x07, 0xB4, 0x3B, 0x3C, 0x54, 0x7B, 0x3C, 
  0x35, 0x85, 0x64, 0xBD, 0x8E, 0x58, 0x2C, 0xBD, 
  0x6E, 0xE2, 0x54, 0x3D, 0x3E, 0xD0, 0xDE, 0xBC, 
  0x23, 0xA1, 0x44, 0xBD, 0x85, 0x04, 0x80, 0x3B, 
  0xE0, 0x63, 0x28, 0xBD, 0x64, 0x34, 0xD2, 0xBC, 
  0xB1, 0xA5, 0x8E, 0x3C, 0x9D, 0x4C, 0x42, 0xBD, 
  0xED, 0xAC, 0x27, 0xBC, 0xE8, 0x76, 0xE8, 0x3C, 
  0xC5, 0x51, 0x67, 0x3B, 0xFA, 0x02, 0x15, 0x3D, 
  0x22, 0xDD, 0xFD, 0xBC, 0x28, 0x26, 0x82, 0xBD, 
  0xED, 0xF0, 0xBD, 0x3C, 0x40, 0xA1, 0x32, 0x3D, 
  0x32, 0x5A, 0xB4, 0x3C, 0xE0, 0x3F, 0x18, 0xBD, 
  0xB3, 0xD1, 0x39, 0xBD, 0x94, 0x2F, 0xEE, 0x3C, 
  0x10, 0x6C, 0x97, 0xBB, 0x14, 0x28, 0x92, 0xBC, 
  0xFF, 0x48, 0x01, 0x3D, 0x2E, 0x0E, 0xE4, 0x3C, 
  0x34, 0x22, 0xCF, 0xBC, 0x60, 0x03, 0x7B, 0xBD, 
  0x27, 0xF9, 0x70, 0x3D, 0xE3, 0xB7, 0x00, 0x3D, 
  0x8A, 0xF5, 0x7E, 0xBD, 0x5C, 0x27, 0x24, 0xBD, 
  0xA8, 0xBD, 0x4E, 0xBC, 0xB3, 0x37, 0x41, 0x3D, 
  0x24, 0x6E, 0x75, 0xBC, 0xE1, 0x9E, 0x6F, 0x3D, 
  0xFD, 0xCE, 0xB2, 0x3C, 0xEA, 0x5B, 0x2E, 0xBD, 
  0xC2, 0x15, 0x8A, 0xBC, 0x10, 0xAF, 0x16, 0xBD, 
  0x28, 0x15, 0xAF, 0x3B, 0x26, 0xC9, 0x8C, 0xBC, 
  0xC1, 0xC3, 0x18, 0x3D, 0x48, 0x3C, 0xBE, 0x3B, 
  0x10, 0xE8, 0x58, 0x3B, 0x5C, 0x35, 0x6B, 0xBD, 
  0x4C, 0x2A, 0x55, 0xBD, 0xDF, 0xCF, 0x4C, 0xBD, 
  0xDC, 0x30, 0x2E, 0x3D, 0x50, 0xA4, 0x2E, 0xBC, 
  0x26, 0x82, 0xE7, 0xBC, 0xF4, 0xB3, 0x5C, 0x3C, 
  0xDA, 0xC6, 0xF9, 0x3C, 0xBD, 0xCF, 0x9E, 0x3C, 
  0x18, 0x50, 0x35, 0x3D, 0xC5, 0xFF, 0x46, 0x3D, 
  0x73, 0xC9, 0x8B, 0x3A, 0xF2, 0x58, 0x88, 0xBC, 
  0x06, 0xE5, 0x97, 0x3A, 0x4E, 0xC9, 0x3C, 0xBD, 
  0x46, 0x62, 0x10, 0xBD, 0x8F, 0xD5, 0x4A, 0x3D, 
  0x72, 0x26, 0x3D, 0xBD, 0x7A, 0xE3, 0xEB, 0x3C, 
  0x06, 0x13, 0x2A, 0x3D, 0x9C, 0x34, 0xDC, 0xBC, 
  0xF3, 0xAA, 0x2F, 0x3D, 0x6A, 0x7C, 0x52, 0x3D, 
  0x47, 0xB1, 0xF6, 0xBC, 0xAE, 0xD4, 0x4F, 0xBD, 
  0x5E, 0x5D, 0x9A, 0x3C, 0x31, 0x4C, 0xDE, 0xBB, 
  0x78, 0xCD, 0x4E, 0xBC, 0x74, 0x36, 0x8B, 0xBB, 
  0xD5, 0x27, 0x67, 0x3C, 0x16, 0x6B, 0x2B, 0x3D, 
  0x77, 0x35, 0x41, 0x3D, 0x60, 0x46, 0xAE, 0xBC, 
  0xF0, 0xC5, 0x3A, 0x3B, 0x9D, 0xBF, 0x45, 0x3D, 
  0x7A, 0x42, 0x0B, 0xBD, 0x93, 0x78, 0x87, 0xBC, 
  0x96, 0xC1, 0x42, 0xBD, 0xC7, 0x54, 0x54, 0xBD, 
  0xF3, 0xA7, 0x16, 0x3D, 0xF4, 0x33, 0x7F, 0x3A, 
  0x07, 0xA7, 0x51, 0x3D, 0xA1, 0x29, 0x55, 0xBD, 
  0xB6, 0x65, 0x8A, 0xBC, 0x17, 0xFB, 0x31, 0x3B, 
  0x6A, 0x63, 0x49, 0x3B, 0xA8, 0xC2, 0x42, 0xBB, 
  0x23, 0x15, 0xEE, 0xBC, 0x11, 0xA9, 0x04, 0xBD, 
  0x80, 0xF5, 0xCB, 0xBA, 0xD9, 0x6A, 0x6A, 0xBD, 
  0x0B, 0xCD, 0x3C, 0x3B, 0xCA, 0xC0, 0x03, 0x3D, 
  0xD3, 0x9A, 0x13, 0xBD, 0xF8, 0x34, 0x3A, 0xBD, 
  0x80, 0x76, 0xE6, 0xBA, 0x4C, 0xFC, 0x4E, 0xBC, 
  0xD1, 0xEA, 0xEA, 0x3C, 0xB1, 0x60, 0x48, 0x3D, 
  0x40, 0xE2, 0x2D, 0xBB, 0xBC, 0x95, 0xAD, 0x3C, 
  0x83, 0x3E, 0x36, 0xBD, 0x63, 0x93, 0x5D, 0x3D, 
  0x3B, 0x1F, 0xB7, 0x3C, 0xF0, 0xCF, 0x40, 0xBD, 
  0x11, 0x98, 0x0E, 0x3D, 0xD9, 0xB4, 0x07, 0x3C, 
  0x68, 0x2E, 0xA2, 0xBB, 0xA4, 0xB0, 0x59, 0x3C, 
  0x0E, 0x13, 0x9B, 0x3C, 0x02, 0x56, 0x16, 0xBD, 
  0x47, 0xA3, 0x41, 0x3D, 0x6A, 0x78, 0xBF, 0xBA, 
  0xEF, 0x44, 0x69, 0x3D, 0xBC, 0x3B, 0x5F, 0x3C, 
  0x97, 0x1A, 0x87, 0x3C, 0x8C, 0x7D, 0x4C, 0xBD, 
  0x9D, 0x61, 0x19, 0x3D, 0x07, 0x31, 0xE1, 0x3C, 
  0x61, 0xB7, 0x74, 0xBB, 0x44, 0xBC, 0x41, 0xBD, 
  0xDD, 0x34, 0x09, 0x3C, 0x91, 0xD9, 0x02, 0x3D, 
  0x3D, 0x75, 0x03, 0xBD, 0x89, 0x31, 0x4B, 0x3D, 
  0x7E, 0x31, 0x78, 0xBD, 0xCE, 0xFE, 0x11, 0xBD, 
  0x81, 0xE1, 0x59, 0xBD, 0x3A, 0x15, 0x69, 0xBD, 
  0x00, 0x7D, 0x09, 0xB9, 0x47, 0xB3, 0x4F, 0xBD, 
  0x50, 0x30, 0xD1, 0xBC, 0xD4, 0x87, 0x89, 0xBB, 
  0x29, 0xEB, 0x78, 0xBC, 0x72, 0x4B, 0x24, 0xBD, 
  0x35, 0x2E, 0x2A, 0x3D, 0x59, 0xFA, 0xF0, 0xBC, 
  0x7A, 0x94, 0x9D, 0x3C, 0xD2, 0xD0, 0x13, 0xBD, 
  0x91, 0x61, 0x99, 0xBB, 0xBC, 0xAF, 0xB6, 0x3C, 
  0x9D, 0x15, 0x15, 0x3D, 0x10, 0x08, 0x2B, 0x3C, 
  0x9A, 0xD3, 0xF9, 0x3C, 0x1F, 0xFB, 0x1C, 0x3D, 
  0x12, 0x81, 0x82, 0xBC, 0x8E, 0x11, 0xBC, 0x3C, 
  0x0D, 0x13, 0x63, 0x3D, 0x73, 0xC1, 0xEE, 0x3C, 
  0x20, 0x88, 0x13, 0xBD, 0x80, 0xD4, 0xDE, 0xBC, 
  0xA5, 0xD6, 0x94, 0x3C, 0x2A, 0x04, 0x8E, 0x3C, 
  0x19, 0x2D, 0x54, 0xBD, 0xDD, 0xA1, 0xE0, 0xBC, 
  0xC5, 0xA4, 0x1A, 0xBD, 0x87, 0x23, 0x53, 0x3D, 
  0xBE, 0xFA, 0x48, 0xBD, 0xF8, 0xF7, 0x95, 0x3B, 
  0xA2, 0xF8, 0xEE, 0x3C, 0x06, 0xFB, 0xC1, 0x3C, 
  0x82, 0x2E, 0xA3, 0x3C, 0xAA, 0x1C, 0xF2, 0x3C, 
  0xA8, 0x96, 0xC6, 0x3A, 0xF8, 0x09, 0x7F, 0xBC, 
  0xFC, 0x1F, 0x3E, 0xBD, 0x5B, 0xD9, 0x30, 0xBD, 
  0x6D, 0x70, 0x3F, 0x3D, 0xF4, 0x3C, 0x78, 0x3C, 
  0x4B, 0x00, 0xCD, 0x3C, 0x49, 0x47, 0x2A, 0x3D, 
  0x55, 0xA7, 0x0C, 0xBD, 0xF5, 0x2B, 0x11, 0x3D, 
  0xE0, 0x3D, 0xFE, 0xBA, 0x30, 0xB7, 0x01, 0xBC, 
  0x93, 0x8A, 0xC1, 0x3A, 0xDD, 0xD0, 0x03, 0x3D, 
  0x70, 0x1B, 0xC0, 0xBC, 0xE1, 0xA8, 0x9D, 0xBA, 
  0xA0, 0x1D, 0xF9, 0xBB, 0x3C, 0x17, 0x31, 0xBD, 
  0x4B, 0x7C, 0x40, 0x3D, 0x60, 0xCF, 0xA6, 0xBA, 
  0xC2, 0x0B, 0xE7, 0x3C, 0x70, 0xCE, 0x51, 0xBB, 
  0xCB, 0x7A, 0x83, 0xBD, 0xE1, 0xBA, 0x67, 0xBC, 
  0x9F, 0xDC, 0x14, 0x3D, 0x2D, 0xCB, 0x0D, 0x3D, 
  0x50, 0xB9, 0xE7, 0x3C, 0x19, 0x49, 0xC4, 0xBC, 
  0x67, 0x82, 0x4C, 0xBD, 0xD7, 0x3C, 0x6E, 0xBD, 
  0x29, 0xED, 0x17, 0x3D, 0x03, 0xB9, 0x18, 0xBD, 
  0x0A, 0x3D, 0xB2, 0x3C, 0xD0, 0x50, 0x12, 0x3D, 
  0x8A, 0x93, 0xF0, 0x3C, 0xD4, 0x27, 0x47, 0x3C, 
  0xF5, 0x26, 0x85, 0xBD, 0x3E, 0x23, 0x7F, 0xBC, 
  0x8B, 0x54, 0x25, 0x3D, 0x52, 0xAD, 0x2D, 0x3D, 
  0x0C, 0x3C, 0xBB, 0xBC, 0x18, 0x64, 0x40, 0xBC, 
  0x2E, 0xED, 0x2B, 0xBD, 0xF2, 0x37, 0x84, 0xBC, 
  0xD4, 0xD9, 0x29, 0xBC, 0x36, 0x55, 0x82, 0xBD, 
  0x50, 0x92, 0x29, 0xBD, 0x60, 0x1D, 0xC0, 0xBA, 
  0xBE, 0x31, 0xDD, 0x39, 0x3F, 0x65, 0x59, 0x3D, 
  0xF0, 0xB8, 0x9D, 0xBB, 0xED, 0x75, 0x65, 0xBC, 
  0x46, 0x1A, 0xE4, 0x3C, 0x74, 0xD6, 0x63, 0x3C, 
  0xFA, 0x05, 0x54, 0xBD, 0x12, 0x2E, 0xF2, 0x3C, 
  0x1C, 0x54, 0x16, 0x3C, 0xE8, 0xE8, 0xD4, 0xBB, 
  0xC6, 0x75, 0x30, 0xBD, 0x31, 0x6D, 0x71, 0xBD, 
  0x09, 0xB4, 0xD5, 0x3C, 0x44, 0x63, 0x37, 0x3C, 
  0x9A, 0x18, 0x90, 0x3C, 0x9B, 0x77, 0xEF, 0x3C, 
  0x30, 0xB3, 0x34, 0xBD, 0xB8, 0xDD, 0xFA, 0x3C, 
  0xD7, 0x19, 0x59, 0x3C, 0x62, 0xD6, 0x82, 0x3C, 
  0xE9, 0x50, 0x08, 0x3D, 0x9F, 0x8E, 0x10, 0xBD, 
  0xC8, 0x3C, 0xCF, 0x3B, 0x3E, 0x63, 0x5F, 0x3B, 
  0x6A, 0x24, 0x61, 0xBD, 0x02, 0xCE, 0xFE, 0xBB, 
  0x50, 0xC2, 0x8E, 0xBB, 0x40, 0x86, 0x58, 0x3D, 
  0x7A, 0x26, 0xCD, 0x3C, 0xE5, 0xBE, 0x56, 0x3D, 
  0x39, 0x07, 0xF4, 0xBC, 0xB6, 0xDE, 0xA4, 0x3C, 
  0x79, 0xC4, 0x22, 0x3D, 0x39, 0x9B, 0x0D, 0xBD, 
  0x3F, 0x2F, 0x14, 0x3D, 0x83, 0x85, 0xF3, 0xBC, 
  0x98, 0x22, 0x98, 0xBC, 0x43, 0xB5, 0x55, 0xBD, 
  0x97, 0x61, 0x57, 0x3D, 0xF6, 0x64, 0x40, 0x3D, 
  0x5B, 0x67, 0x50, 0x3D, 0xC7, 0x7B, 0x13, 0xBD, 
  0x1A, 0xE7, 0x5E, 0xBD, 0xF3, 0x63, 0x05, 0x3D, 
  0xD0, 0x63, 0x52, 0xBC, 0x8B, 0xE8, 0x37, 0xBD, 
  0x3E, 0x10, 0x86, 0x3C, 0x1C, 0x2B, 0x48, 0x3C, 
  0x38, 0x20, 0xDA, 0xBC, 0x4B, 0xD0, 0x3B, 0xBD, 
  0x52, 0x08, 0x58, 0xBD, 0xEE, 0xD2, 0xAE, 0xBC, 
  0x50, 0x67, 0xE3, 0xBC, 0x94, 0x27, 0x02, 0xBD, 
  0x33, 0xB5, 0x47, 0xBD, 0xEA, 0x78, 0x64, 0xBD, 
  0x31, 0x5E, 0x54, 0x3D, 0xAF, 0xB4, 0x2A, 0xBD, 
  0x78, 0x41, 0xCE, 0xBB, 0x54, 0xA7, 0x7A, 0x3C, 
  0x71, 0x76, 0x2D, 0x3C, 0x70, 0xA3, 0x14, 0xBC, 
  0xDB, 0x26, 0x2C, 0x3D, 0xC9, 0xC1, 0x33, 0x3D, 
  0x54, 0xB5, 0x0C, 0x3C, 0x80, 0xA5, 0xCB, 0x39, 
  0x11, 0xF6, 0x16, 0xBD, 0xE8, 0x20, 0x35, 0xBC, 
  0xB5, 0xB7, 0x00, 0x3D, 0xA7, 0x11, 0x84, 0xBC, 
  0x4E, 0x4E, 0xF0, 0xBC, 0x0F, 0x09, 0x26, 0x3D, 
  0xFA, 0xD9, 0x68, 0xBD, 0x09, 0x31, 0x3E, 0xBD, 
  0x84, 0xFC, 0x61, 0x3C, 0xE3, 0x61, 0x08, 0xBD, 
  0x94, 0xF8, 0x4E, 0x3C, 0xFE, 0x71, 0x6A, 0xBD, 
  0x43, 0xCE, 0xEF, 0x3B, 0xCD, 0xBC, 0x22, 0x3D, 
  0x9E, 0x30, 0xFE, 0x3C, 0xF3, 0x5D, 0x2B, 0x3D, 
  0xF1, 0x88, 0x31, 0x3D, 0xD2, 0x3E, 0x98, 0x3C, 
  0x44, 0x90, 0xB6, 0xBC, 0x24, 0xF8, 0x02, 0x3C, 
  0x2E, 0xC0, 0xC9, 0xBC, 0xC9, 0x7D, 0x9E, 0xBC, 
  0xEB, 0xB4, 0x32, 0x3D, 0x29, 0xD9, 0x38, 0x3D, 
  0x66, 0x47, 0xC4, 0xBC, 0xD3, 0xED, 0x6D, 0x3D, 
  0x7C, 0x92, 0x02, 0xBC, 0x6B, 0x3F, 0xAA, 0xBC, 
  0xAC, 0xCD, 0x63, 0x3C, 0x90, 0x6A, 0x3C, 0x3B, 
  0x65, 0xD7, 0xB1, 0xBC, 0x7F, 0x1B, 0x6D, 0x3D, 
  0x7A, 0x15, 0xFF, 0x3C, 0x17, 0x15, 0xCC, 0x3B, 
  0xF6, 0x3F, 0xFC, 0x3C, 0x87, 0x0E, 0x44, 0x3D, 
  0x3C, 0x46, 0xEB, 0xBC, 0xDF, 0xD6, 0xEA, 0xBC, 
  0x12, 0xAA, 0x07, 0x3D, 0xBA, 0x23, 0xDB, 0xBC, 
  0x3E, 0x5B, 0x2C, 0xBC, 0xAC, 0xFF, 0x6E, 0xBD, 
  0x5A, 0x31, 0x2C, 0xBD, 0x43, 0xAC, 0x21, 0xBD, 
  0xA5, 0x02, 0xD6, 0x3C, 0x59, 0xBD, 0xB6, 0xBC, 
  0x1D, 0x3B, 0x88, 0xBC, 0x57, 0x91, 0x20, 0x3D, 
  0x2D, 0xC0, 0x29, 0x3D, 0xC5, 0xE2, 0x55, 0x3D, 
  0x8A, 0x01, 0x04, 0x3C, 0xAE, 0x95, 0xB7, 0x3C, 
  0x0A, 0x0F, 0xF0, 0xBC, 0x14, 0x49, 0xC1, 0x3C, 
  0xD1, 0xFC, 0xCF, 0x3C, 0x07, 0x62, 0x57, 0x3D, 
  0x59, 0x18, 0x93, 0xBB, 0xB0, 0xD9, 0x2E, 0x3D, 
  0x00, 0x70, 0x03, 0x3D, 0xAB, 0xFF, 0x96, 0xBB, 
  0x65, 0x33, 0x2C, 0xBD, 0x91, 0x22, 0x16, 0xBD, 
  0x78, 0x1D, 0x3A, 0xBD, 0x52, 0xFB, 0x23, 0xBD, 
  0xA6, 0x7D, 0x24, 0xBC, 0x1D, 0x34, 0x53, 0x3D, 
  0xE5, 0x17, 0x5F, 0xBD, 0x5C, 0xBE, 0x5E, 0xBD, 
  0x4B, 0x7B, 0x04, 0xBD, 0xBA, 0x3C, 0x4A, 0x3D, 
  0x91, 0xFC, 0x5E, 0xBD, 0x09, 0x4E, 0xE5, 0x3C, 
  0x26, 0xB8, 0x08, 0x3D, 0x4B, 0xF6, 0x3C, 0x3D, 
  0x53, 0x4F, 0x58, 0xBD, 0xF4, 0x10, 0xBA, 0xBC, 
  0xAB, 0x0F, 0x29, 0xBC, 0x2F, 0xEA, 0x99, 0x3B, 
  0xB3, 0x71, 0xF4, 0xBB, 0xC6, 0xF6, 0x28, 0xBD, 
  0x07, 0x01, 0xD4, 0x3B, 0x02, 0x03, 0x4D, 0xBC, 
  0x30, 0xC8, 0x1F, 0x3D, 0xD5, 0x0F, 0xE2, 0xBC, 
  0x92, 0x59, 0x15, 0xBD, 0x88, 0xF9, 0xB5, 0x3B, 
  0x5A, 0x68, 0xB9, 0x3C, 0x3D, 0x97, 0xBB, 0x3C, 
  0x6D, 0xE1, 0x8C, 0xBA, 0xBE, 0x96, 0x51, 0xBD, 
  0x01, 0x8E, 0x7A, 0xBD, 0x30, 0x22, 0x4B, 0xBD, 
  0xBC, 0x44, 0x5F, 0xBD, 0x11, 0x79, 0x16, 0x3C, 
  0x12, 0x98, 0xBA, 0x3C, 0xA4, 0x70, 0x6F, 0xBD, 
  0x8F, 0x40, 0x54, 0xBC, 0xE7, 0xF0, 0x07, 0x3D, 
  0x33, 0xA1, 0x23, 0x3D, 0xB3, 0x44, 0x61, 0xBD, 
  0x1B, 0xFE, 0x0D, 0x3D, 0x67, 0x52, 0x15, 0xBD, 
  0x3B, 0x40, 0xC2, 0xBC, 0xA9, 0x91, 0x1E, 0x3D, 
  0x22, 0x73, 0x5B, 0xBD, 0x68, 0x6B, 0xE6, 0x3C, 
  0x1C, 0x08, 0x2D, 0x3C, 0x8E, 0xD7, 0xC9, 0x3C, 
  0x30, 0xE6, 0x96, 0xBB, 0x79, 0x20, 0x41, 0x3D, 
  0xA2, 0xE6, 0xBD, 0x3C, 0x54, 0xCC, 0x53, 0x3D, 
  0x8E, 0x16, 0xFA, 0x3C, 0xAF, 0x69, 0x50, 0x3D, 
  0x91, 0x83, 0x40, 0x3C, 0xC0, 0xA3, 0xF9, 0x3A, 
  0xD8, 0x55, 0xA8, 0xBB, 0x76, 0xBB, 0x03, 0xBD, 
  0xC0, 0x51, 0x52, 0x3B, 0xE0, 0x8E, 0x80, 0x3A, 
  0xC1, 0xBB, 0x49, 0x3D, 0xD1, 0x6E, 0x08, 0x3D, 
  0x68, 0xD9, 0x49, 0xBD, 0x35, 0x1D, 0x4C, 0x3C, 
  0xCF, 0xE7, 0x4B, 0xBD, 0xE1, 0xD1, 0x35, 0x3D, 
  0xA2, 0xE1, 0x86, 0x3C, 0xBE, 0x24, 0x6C, 0xBD, 
  0x5B, 0x1B, 0x5A, 0x3D, 0xCA, 0xFC, 0xEE, 0x3C, 
  0x30, 0x1C, 0x08, 0xBD, 0xA7, 0xCE, 0x11, 0x3D, 
  0xFF, 0xB9, 0xC5, 0xBC, 0x36, 0xA8, 0x5D, 0xBD, 
  0x76, 0x74, 0xDF, 0x3C, 0x6B, 0xDC, 0x01, 0xBD, 
  0xA8, 0xF5, 0x81, 0x3B, 0x00, 0x85, 0x5E, 0xBD, 
  0x0D, 0x28, 0xEC, 0xBA, 0xB6, 0xA0, 0xC2, 0xBC, 
  0xC3, 0x64, 0x71, 0x3D, 0x94, 0x23, 0xFD, 0x3C, 
  0x24, 0x7A, 0x8D, 0xBC, 0xD2, 0x2D, 0x51, 0xBD, 
  0x8B, 0x84, 0xE4, 0x3C, 0x12, 0x4B, 0x91, 0xBC, 
  0x76, 0xEC, 0x19, 0xBD, 0x11, 0xAF, 0xD2, 0x3B, 
  0xBE, 0x65, 0x28, 0xBD, 0xA7, 0x6A, 0x47, 0xBD, 
  0x3B, 0x75, 0x3E, 0xBD, 0x6E, 0x38, 0xB6, 0xBC, 
  0xC0, 0x82, 0x11, 0x3B, 0x56, 0x9F, 0x4E, 0x3D, 
  0x24, 0xDE, 0x1C, 0xBD, 0x44, 0xE1, 0x28, 0x3C, 
  0xF7, 0xD7, 0x0D, 0xBD, 0x37, 0x74, 0x29, 0xBD, 
  0xBA, 0x31, 0xF0, 0xBC, 0x80, 0x60, 0x78, 0x3B, 
  0x34, 0x18, 0xBB, 0xBC, 0x49, 0x60, 0x53, 0xBD, 
  0x6A, 0xD6, 0x15, 0x3D, 0x28, 0x0A, 0xFE, 0xBC, 
  0xCC, 0xF8, 0x79, 0x3C, 0x1C, 0x21, 0xEC, 0xBC, 
  0x9D, 0xEA, 0x34, 0x3D, 0x86, 0x26, 0xE5, 0x3C, 
  0x67, 0xB3, 0x45, 0x3B, 0x40, 0x0E, 0x15, 0x3A, 
  0x9D, 0xD7, 0x35, 0x3D, 0x20, 0x2D, 0x59, 0x3D, 
  0xE4, 0x19, 0x2A, 0x3C, 0x28, 0x27, 0x41, 0xBA, 
  0x16, 0x59, 0x30, 0x3D, 0x9A, 0xF1, 0x89, 0x3C, 
  0x33, 0x92, 0xFC, 0xBB, 0xB4, 0x64, 0xFF, 0x3A, 
  0x8F, 0xEF, 0x32, 0x3B, 0x27, 0xE6, 0x33, 0x3D, 
  0x3A, 0x96, 0xFF, 0xBC, 0x29, 0x92, 0x2C, 0xBD, 
  0xAF, 0xCD, 0x2B, 0xBD, 0x48, 0x32, 0xF9, 0xBB, 
  0x8D, 0x44, 0xDC, 0x3C, 0x83, 0x6A, 0x24, 0xBD, 
  0x01, 0x25, 0x06, 0x3C, 0x1F, 0x3F, 0x43, 0xBD, 
  0xDC, 0x78, 0x1A, 0x3D, 0x39, 0xFF, 0x51, 0xBD, 
  0xD7, 0xF1, 0xC8, 0xBB, 0x00, 0x87, 0x11, 0xBD, 
  0xF1, 0x05, 0x76, 0xBD, 0x69, 0x99, 0x72, 0x3C, 
  0xBA, 0xEB, 0xF2, 0xBB, 0x20, 0xA0, 0xB8, 0xBA, 
  0x3D, 0xCE, 0xFB, 0xBC, 0x39, 0xBF, 0xFC, 0xBC, 
  0x3D, 0xFE, 0x3D, 0x3D, 0x04, 0x0C, 0x11, 0xBD, 
  0xEB, 0x89, 0xB9, 0xBC, 0xC0, 0x65, 0x2F, 0xBA, 
  0x43, 0x45, 0x55, 0xBD, 0x5D, 0x63, 0x54, 0x3D, 
  0x46, 0x10, 0xB3, 0x3C, 0x7F, 0x8B, 0x0A, 0x3D, 
  0xAB, 0x2D, 0x37, 0x3D, 0x6C, 0xF9, 0x5E, 0xBD, 
  0xC7, 0x9A, 0x0A, 0x3D, 0x51, 0xA4, 0x39, 0x3C, 
  0x7C, 0x20, 0x1E, 0xBD, 0xD6, 0xC2, 0xCE, 0x3A, 
  0xC1, 0xF2, 0x62, 0xBD, 0x35, 0x46, 0x35, 0x3D, 
  0x0A, 0x2C, 0xE0, 0x3C, 0xD1, 0x05, 0x17, 0xBD, 
  0x36, 0x7C, 0x16, 0x3D, 0x83, 0x53, 0x20, 0xBD, 
  0xE8, 0x3F, 0x2D, 0xBD, 0x4C, 0x16, 0x3C, 0x3C, 
  0xE4, 0xF8, 0x27, 0x3C, 0xE6, 0x60, 0xF3, 0xBC, 
  0xD4, 0xA9, 0xF3, 0x3C, 0x8E, 0xE1, 0x38, 0xBD, 
  0x40, 0x49, 0x7C, 0xBA, 0x1E, 0x8F, 0x2C, 0xBD, 
  0xA1, 0x71, 0x63, 0x3D, 0xDA, 0x5E, 0x00, 0x3D, 
  0xC3, 0xE6, 0xA4, 0x3B, 0x44, 0x51, 0x2C, 0xBC, 
  0xB1, 0xE9, 0x5F, 0x3D, 0x03, 0x34, 0x38, 0x3C, 
  0xAA, 0xB4, 0x6E, 0xBD, 0x74, 0x14, 0x4A, 0xBD, 
  0x64, 0xF4, 0x3E, 0xBD, 0xE6, 0x6B, 0xD2, 0xBC, 
  0xB0, 0x60, 0x8F, 0xBB, 0x67, 0xA3, 0x09, 0xBD, 
  0x80, 0x7A, 0x59, 0xBC, 0x00, 0x05, 0x6C, 0x39, 
  0x6C, 0x9A, 0xB9, 0xBA, 0x32, 0x35, 0x50, 0xBD, 
  0x58, 0x46, 0x58, 0xBC, 0x90, 0x9E, 0x91, 0x3C, 
  0x7F, 0x36, 0x69, 0x3D, 0x49, 0xB0, 0x0E, 0xBD, 
  0x52, 0x49, 0x7F, 0xBD, 0xBB, 0xFE, 0x46, 0x3D, 
  0xD0, 0x4E, 0x5C, 0xBC, 0x6A, 0x06, 0x3C, 0xBD, 
  0xD8, 0x46, 0xA7, 0x3B, 0x72, 0x32, 0xC5, 0xBC, 
  0xFA, 0x09, 0xA5, 0xBC, 0x1C, 0x63, 0x5F, 0xBD, 
  0xC8, 0x24, 0xC8, 0xBC, 0xE1, 0xC4, 0x70, 0xBD, 
  0x80, 0x15, 0x22, 0xBB, 0xEC, 0xC1, 0xF7, 0xBB, 
  0x95, 0x89, 0x9E, 0x3C, 0xE0, 0x17, 0xE9, 0xBB, 
  0x1A, 0x35, 0x08, 0xBD, 0x1F, 0xA8, 0xAF, 0xBC, 
  0x9C, 0x6C, 0x49, 0x3C, 0x78, 0x57, 0x18, 0x3D, 
  0x06, 0x1F, 0x40, 0xBD, 0x70, 0xCF, 0xD5, 0xBB, 
  0x6D, 0x2C, 0x33, 0xBD, 0x94, 0x80, 0xBA, 0xBC, 
  0x70, 0xB2, 0x8D, 0xBC, 0x17, 0x43, 0x2C, 0xBD, 
  0xF4, 0xD7, 0x3C, 0x3D, 0x4C, 0x75, 0x22, 0x3C, 
  0x89, 0x40, 0x01, 0x3D, 0x35, 0x7F, 0xDF, 0xBB, 
  0xEC, 0x3E, 0xE0, 0xBC, 0x38, 0x12, 0xE9, 0x3B, 
  0x28, 0x73, 0xA1, 0xBC, 0xA6, 0x19, 0x95, 0xBC, 
  0xE1, 0xAC, 0x11, 0x3D, 0xC4, 0xB5, 0x50, 0x3A, 
  0xE1, 0x55, 0x44, 0x3D, 0xFC, 0x07, 0xCC, 0xBC, 
  0x8A, 0x00, 0xF9, 0x39, 0x38, 0xB1, 0x70, 0xBD, 
  0xFE, 0xBD, 0x4E, 0xBD, 0x76, 0xAA, 0x52, 0xBC, 
  0xE7, 0x99, 0xE4, 0xBC, 0xA0, 0x17, 0x52, 0xBB, 
  0x8D, 0x69, 0x83, 0xBB, 0x8F, 0x60, 0x6A, 0xBD, 
  0x9E, 0xF8, 0x87, 0x3C, 0x98, 0xC2, 0x80, 0x3C, 
  0xF2, 0x3A, 0x2D, 0xBD, 0x0F, 0xB5, 0x09, 0xBD, 
  0xEC, 0x05, 0xF3, 0x3C, 0x24, 0x14, 0x80, 0xBC, 
  0x47, 0x2C, 0x2E, 0x3D, 0x34, 0xAC, 0x89, 0xBB, 
  0x33, 0xFB, 0x20, 0x3D, 0x36, 0x14, 0x3C, 0xBD, 
  0xF8, 0x8C, 0xC8, 0xBC, 0x90, 0xB2, 0xBD, 0xBC, 
  0xA6, 0x29, 0xAF, 0x3C, 0x77, 0xEA, 0xC7, 0xBC, 
  0x67, 0x1D, 0x6E, 0xBD, 0x33, 0xAF, 0x60, 0x3D, 
  0x5D, 0xFF, 0x33, 0xBD, 0xE3, 0x2C, 0x3E, 0xBD, 
  0x2F, 0xE6, 0x29, 0x3D, 0x60, 0x50, 0x5D, 0xBC, 
  0x6B, 0x13, 0x25, 0x3D, 0xE8, 0xE1, 0xBE, 0x3C, 
  0xF4, 0xB2, 0x9C, 0xBC, 0xF7, 0x3A, 0x58, 0xBD, 
  0x7E, 0xEC, 0x1E, 0x3D, 0xEB, 0xF1, 0xC6, 0x3C, 
  0xAE, 0xCC, 0x48, 0xBD, 0x24, 0x48, 0x7C, 0xBB, 
  0x58, 0x3A, 0x0D, 0xBD, 0x6F, 0x80, 0x6E, 0xBD, 
  0xAC, 0x9D, 0xAC, 0x3A, 0x24, 0x14, 0x4C, 0x3C, 
  0x79, 0xDA, 0xD6, 0xBC, 0xB9, 0xB3, 0x7C, 0xBD, 
  0xE0, 0x7C, 0x1F, 0xBC, 0x8F, 0xD7, 0x08, 0x3D, 
  0xFE, 0xE1, 0x84, 0xBD, 0xF9, 0x5B, 0x1E, 0xBD, 
  0x4F, 0x63, 0x3E, 0xBC, 0xF4, 0xB0, 0xB7, 0xBC, 
  0xBB, 0xB1, 0x4D, 0x3D, 0xEA, 0xB0, 0xA2, 0xBB, 
  0xC7, 0x0A, 0x10, 0x3D, 0xFE, 0xBB, 0xAB, 0x3C, 
  0x38, 0x99, 0x87, 0xBC, 0xF6, 0x3E, 0x1A, 0xBD, 
  0x01, 0x1F, 0x1F, 0x3D, 0x5F, 0xFA, 0x30, 0xBC, 
  0xAB, 0xF3, 0x5E, 0xBD, 0xDA, 0xEB, 0xBF, 0x3C, 
  0x1A, 0xAB, 0x21, 0x3D, 0xD7, 0x28, 0x37, 0x3D, 
  0x6C, 0xD9, 0xFC, 0xBC, 0xB4, 0x97, 0xEF, 0xBC, 
  0x66, 0x01, 0x48, 0x3C, 0x81, 0x0F, 0x4C, 0x3D, 
  0x7D, 0xAB, 0xA7, 0x3C, 0x2B, 0xCE, 0x00, 0x3D, 
  0x74, 0xF2, 0x4C, 0x3C, 0xFD, 0x2A, 0xEF, 0xBC, 
  0xF4, 0x35, 0xD6, 0x3C, 0xB8, 0xC4, 0x38, 0xBD, 
  0xDD, 0xAB, 0x34, 0x3D, 0x87, 0x36, 0x6F, 0xBD, 
  0x76, 0x49, 0x66, 0x3B, 0xEB, 0xB3, 0x01, 0x3D, 
  0x52, 0x21, 0x0F, 0x3D, 0x6C, 0xCD, 0x39, 0x3D, 
  0x27, 0x55, 0xB6, 0x3C, 0xC4, 0x8B, 0x17, 0xBD, 
  0xC9, 0x78, 0xD9, 0x3C, 0x3A, 0xB6, 0x1E, 0xBD, 
  0x46, 0x8C, 0x3D, 0x3D, 0x89, 0x2B, 0x42, 0xBD, 
  0x11, 0xCD, 0x4D, 0xBD, 0x8F, 0xFA, 0x30, 0x3D, 
  0xD3, 0x7B, 0x02, 0xBD, 0x35, 0xDB, 0x57, 0x3D, 
  0x05, 0x5B, 0xF4, 0xBC, 0xE7, 0xB5, 0xD2, 0xBC, 
  0x44, 0x85, 0xF7, 0x3C, 0xBE, 0xF5, 0xA7, 0x3C, 
  0x83, 0x0D, 0xF7, 0x3C, 0xA9, 0x45, 0x15, 0x3D, 
  0xDA, 0x06, 0xED, 0x3C, 0x65, 0x68, 0x77, 0xBD, 
  0x91, 0x3B, 0x65, 0x3D, 0xD6, 0x47, 0x61, 0x3C, 
  0xF6, 0x81, 0x27, 0xBC, 0xFC, 0x9C, 0x43, 0xBD, 
  0xCC, 0x74, 0x00, 0xBC, 0x88, 0xF7, 0x63, 0xBD, 
  0x78, 0xF6, 0x66, 0xBC, 0x7B, 0x6D, 0x01, 0x3D, 
  0x28, 0x8E, 0xF5, 0xBB, 0x72, 0xAE, 0xB1, 0x3C, 
  0x50, 0x99, 0x8D, 0xBC, 0xDC, 0x5B, 0x02, 0xBD, 
  0x60, 0xE7, 0x0D, 0xBC, 0xE2, 0x7E, 0xB5, 0xBC, 
  0x9B, 0xAB, 0x2B, 0xBC, 0xCE, 0x7A, 0x35, 0xBD, 
  0xC8, 0xBC, 0x6E, 0xBD, 0xF6, 0x85, 0x52, 0xBD, 
  0x6E, 0xCC, 0xA6, 0x3C, 0x82, 0xA3, 0x14, 0xBD, 
  0x89, 0xCC, 0xB0, 0xBC, 0x8D, 0x0C, 0x5A, 0x3D, 
  0x58, 0x5F, 0x9E, 0x3B, 0x78, 0x42, 0x1C, 0x3D, 
  0xB4, 0xE1, 0x5C, 0x3C, 0xCC, 0xB1, 0x12, 0xBC, 
  0xDF, 0xC3, 0x00, 0xBD, 0x88, 0xF2, 0x13, 0xBC, 
  0xA2, 0x84, 0x71, 0xBD, 0x8A, 0xD8, 0xBD, 0x3B, 
  0xCD, 0x1C, 0x71, 0xBD, 0xE3, 0x05, 0x1B, 0x3D, 
  0x11, 0xE3, 0xFB, 0x3A, 0x7C, 0x25, 0xAF, 0xBC, 
  0xD8, 0x88, 0x2D, 0xBC, 0x7F, 0xED, 0xC8, 0xBC, 
  0xF4, 0x4E, 0xA3, 0xBC, 0x02, 0xFC, 0xE7, 0xBC, 
  0xCF, 0x34, 0x40, 0x3D, 0x16, 0x18, 0xDB, 0xBC, 
  0xEE, 0xC6, 0xFD, 0x3C, 0x17, 0x19, 0x03, 0x3D, 
  0xF0, 0x2C, 0x76, 0xBB, 0xAC, 0xC2, 0x87, 0xBC, 
  0xAB, 0x93, 0xC9, 0x3C, 0x09, 0xBC, 0x5F, 0xBD, 
  0xE1, 0x87, 0x0C, 0x3D, 0xF3, 0xE8, 0x46, 0xBC, 
  0xE4, 0xB5, 0x1C, 0xBD, 0x9A, 0x0F, 0xDC, 0xBC, 
  0x13, 0x11, 0x48, 0xBC, 0xF0, 0x1B, 0x94, 0xBB, 
  0x51, 0x99, 0x0D, 0x3D, 0x12, 0x38, 0x26, 0xBD, 
  0x4B, 0x52, 0x2E, 0x3D, 0x36, 0x69, 0x84, 0x3C, 
  0x13, 0xB5, 0x1E, 0xBC, 0x74, 0xDD, 0x42, 0xBD, 
  0xCA, 0x47, 0x9F, 0x3C, 0x63, 0xCC, 0x47, 0xBD, 
  0x55, 0xB7, 0x04, 0x3D, 0x97, 0x37, 0x4C, 0x3D, 
  0x2D, 0x8C, 0x38, 0xBD, 0xDC, 0xCB, 0xD0, 0xBC, 
  0x38, 0xF7, 0x0B, 0xBC, 0x45, 0x92, 0x31, 0xBD, 
  0x5C, 0x91, 0x20, 0xBD, 0x16, 0x10, 0x4B, 0xBD, 
  0xAB, 0xD6, 0x43, 0x3D, 0x19, 0xF4, 0x08, 0x3D, 
  0x47, 0xAD, 0x23, 0x3D, 0x9B, 0xFF, 0xA2, 0xBC, 
  0x52, 0x11, 0x8B, 0x3C, 0x1E, 0x89, 0x89, 0x3C, 
  0x53, 0xDA, 0x09, 0xBD, 0x6C, 0xB0, 0xDE, 0xBC, 
  0x61, 0x73, 0x3F, 0x3D, 0xF3, 0x25, 0x3E, 0xBD, 
  0xF6, 0xE1, 0x1B, 0x3D, 0x09, 0xDA, 0xAD, 0xBC, 
  0x1A, 0x87, 0x03, 0xBD, 0xE8, 0x99, 0xC7, 0xBC, 
  0xE1, 0x9B, 0x29, 0xBD, 0x69, 0x4F, 0x41, 0xBD, 
  0x16, 0x67, 0xDB, 0xBC, 0x84, 0x4F, 0xED, 0x3B, 
  0x88, 0xB4, 0xED, 0xBB, 0xA4, 0x4B, 0x5B, 0xBC, 
  0xD9, 0x98, 0x2C, 0xBC, 0x36, 0xB3, 0x50, 0x3C, 
  0x2C, 0x9A, 0x74, 0x3C, 0x92, 0xC3, 0x05, 0xBD, 
  0x2F, 0x3A, 0x40, 0x3D, 0x9D, 0x62, 0x41, 0xBD, 
  0x03, 0x26, 0x1A, 0xBD, 0xD8, 0xE1, 0x50, 0xBD, 
  0x0E, 0x8C, 0x32, 0xBD, 0xF3, 0xEB, 0xB4, 0xBB, 
  0x88, 0xBF, 0xB8, 0x3B, 0x88, 0x6A, 0x17, 0x3C, 
  0x7E, 0x8F, 0x80, 0xBC, 0x42, 0x67, 0x90, 0xBC, 
  0x9F, 0xCC, 0x15, 0xBD, 0x88, 0xEA, 0x6F, 0x3C, 
  0x60, 0xD7, 0x8A, 0x3A, 0x05, 0x04, 0x10, 0xBC, 
  0x5B, 0xC0, 0xED, 0x3C, 0xD1, 0x2D, 0x4C, 0xBD, 
  0x4C, 0x19, 0x29, 0xBC, 0x63, 0xCD, 0x53, 0xBD, 
  0xF4, 0xD8, 0x61, 0x3C, 0xE8, 0xB3, 0x81, 0x3A, 
  0x00, 0xB6, 0x7A, 0xBD, 0x78, 0x07, 0xFF, 0x3C, 
  0x19, 0x4C, 0x9E, 0xBC, 0x20, 0xA9, 0xE9, 0xBA, 
  0xD2, 0xF4, 0x27, 0xBD, 0xEC, 0xE7, 0x7B, 0x3C, 
  0xEE, 0x99, 0x37, 0x3D, 0xF2, 0x15, 0x17, 0xBC, 
  0x68, 0xC5, 0xF3, 0x3B, 0x5C, 0xDB, 0x32, 0x3C, 
  0xDE, 0xBE, 0xDA, 0xBC, 0xB3, 0x8F, 0xCA, 0xBC, 
  0x01, 0xFE, 0x15, 0x3D, 0x15, 0x40, 0x39, 0xBD, 
  0xE3, 0x31, 0x09, 0x3D, 0xA8, 0xB4, 0x8D, 0x3C, 
  0x2B, 0x7E, 0xB4, 0x3B, 0x0B, 0xF9, 0x1B, 0x3D, 
  0x1B, 0x00, 0x4C, 0xBD, 0xB4, 0x80, 0x53, 0x3B, 
  0x4F, 0xD6, 0x5C, 0x3D, 0xF6, 0xD1, 0xBF, 0xBB, 
  0x2E, 0x4E, 0xD9, 0xBC, 0xD3, 0xD0, 0x15, 0x3D, 
  0xEF, 0x82, 0x67, 0x3D, 0x5C, 0xC3, 0xCE, 0x3C, 
  0xFA, 0xCB, 0xC0, 0x3C, 0xE9, 0xE9, 0x59, 0xBB, 
  0x26, 0xEB, 0x70, 0xBC, 0x1C, 0x14, 0x0A, 0xBD, 
  0xA7, 0xE0, 0x1A, 0x3D, 0xA6, 0x95, 0xD1, 0xBC, 
  0xA0, 0x7B, 0x4A, 0x3B, 0xAC, 0x91, 0x08, 0x3C, 
  0x9F, 0xF8, 0x0C, 0x3B, 0x93, 0xC3, 0x59, 0x3D, 
  0xA8, 0x87, 0x81, 0xBC, 0xA6, 0x49, 0xF9, 0xBC, 
  0x54, 0xE4, 0x5C, 0xBD, 0xF2, 0xCF, 0x42, 0xBD, 
  0xF8, 0x8D, 0x23, 0x3D, 0x60, 0xC2, 0x71, 0xBC, 
  0x84, 0x9D, 0xCC, 0xBC, 0x63, 0x37, 0x9E, 0xBC, 
  0x73, 0xAF, 0x19, 0x3D, 0x48, 0xE3, 0x43, 0xBC, 
  0x6E, 0xFF, 0x1D, 0x3C, 0x32, 0xB0, 0x67, 0xBD, 
  0xF8, 0xB8, 0xDF, 0xBB, 0xF5, 0x72, 0x2B, 0x3D, 
  0x9B, 0x9E, 0x20, 0x3D, 0x74, 0xAE, 0x0A, 0x3C, 
  0x65, 0x81, 0x99, 0x3B, 0x95, 0x1C, 0x6C, 0x3D, 
  0x40, 0xC3, 0xA5, 0xBB, 0x64, 0xE1, 0xE8, 0x3C, 
  0x04, 0xA5, 0x41, 0x3C, 0x28, 0xB9, 0x90, 0xBB, 
  0xBD, 0x95, 0xA1, 0x3C, 0x5F, 0x3F, 0x4C, 0x3D, 
  0x48, 0xF5, 0xE3, 0x3B, 0x5D, 0xF9, 0xA8, 0x3C, 
  0xF0, 0x6F, 0xD0, 0xBB, 0x42, 0x9A, 0x69, 0xBD, 
  0x41, 0xBC, 0x5B, 0xBD, 0x58, 0x7F, 0x7F, 0xBC, 
  0xB6, 0x63, 0xCF, 0x3C, 0x72, 0xDA, 0x6D, 0x3C, 
  0x1D, 0x0B, 0xF3, 0xBC, 0x06, 0x7E, 0xA5, 0x3C, 
  0x1B, 0xE6, 0x9E, 0x3B, 0xE2, 0xCE, 0xEC, 0xBC, 
  0x47, 0x86, 0x42, 0xBC, 0x57, 0xCB, 0x15, 0x3E, 
  0x52, 0x46, 0xAC, 0x3C, 0x88, 0xFF, 0x2B, 0xBC, 
  0xBE, 0x90, 0x3F, 0x3C, 0x9F, 0x1E, 0xC5, 0x3B, 
  0xE9, 0x25, 0xA4, 0xBB, 0xCD, 0x1C, 0x9B, 0x3D, 
  0x38, 0xF5, 0x96, 0x3C, 0x29, 0x34, 0xDD, 0x3B, 
  0x98, 0x2F, 0x02, 0x3C, 0xCE, 0x1A, 0x89, 0x3C, 
  0xB1, 0x10, 0xFB, 0x3C, 0xA3, 0xE1, 0x08, 0x3E, 
  0x00, 0xAB, 0x3E, 0xBD, 0x13, 0xFC, 0x26, 0x3D, 
  0xE1, 0x7B, 0xCE, 0x3D, 0x22, 0x7B, 0xE2, 0x3A, 
  0x05, 0xDD, 0xE9, 0xBC, 0xF7, 0x93, 0x35, 0x3D, 
  0xD7, 0x9C, 0x9B, 0xBC, 0x7A, 0xFB, 0x3B, 0x3D, 
  0xDD, 0x45, 0x85, 0x3D, 0x07, 0xE3, 0x58, 0xBD, 
  0x36, 0x56, 0xDC, 0x3C, 0x89, 0xB5, 0x44, 0x3D, 
  0xF7, 0x35, 0x02, 0x3D, 0xC7, 0x86, 0x58, 0x3D, 
  0xBF, 0x1F, 0x92, 0xBC, 0x51, 0x73, 0xEB, 0xBC, 
  0x01, 0xD3, 0x55, 0xBC, 0x61, 0x4E, 0xF5, 0xBC, 
  0x39, 0x71, 0x81, 0xBC, 0x13, 0x4C, 0xA7, 0x3B, 
  0x90, 0xA8, 0x1A, 0x3C, 0x5F, 0x40, 0x0B, 0xBD, 
  0x47, 0xDB, 0x83, 0x3C, 0xD3, 0xCD, 0xB6, 0xBB, 
  0x07, 0x40, 0xE3, 0xBB, 0x12, 0x2F, 0x33, 0xBD, 
  0xA1, 0xE2, 0x51, 0x3D, 0x36, 0x57, 0x25, 0x3D, 
  0x98, 0x43, 0x0C, 0x3D, 0xF5, 0x7D, 0xBE, 0xBB, 
  0xD0, 0x85, 0x74, 0x3D, 0xEB, 0x9D, 0x6D, 0xBC, 
  0xA8, 0xA6, 0xCD, 0xBB, 0xDF, 0xCE, 0xEC, 0xBC, 
  0x03, 0x3D, 0xD3, 0xBB, 0xCF, 0x89, 0x97, 0xBD, 
  0xB9, 0x9D, 0x18, 0x3D, 0xB4, 0xD0, 0x7D, 0xBC, 
  0xCA, 0x98, 0x93, 0x3C, 0x87, 0x43, 0xAD, 0x3B, 
  0xC7, 0xE0, 0x73, 0xBC, 0x56, 0xE9, 0xF4, 0x3C, 
  0x6C, 0x28, 0x44, 0x3D, 0xB0, 0x02, 0xCC, 0x3C, 
  0x9D, 0xB2, 0x3F, 0xBD, 0xD5, 0xCA, 0x97, 0xBC, 
  0x88, 0xB0, 0x29, 0xBD, 0x4D, 0xC5, 0xC6, 0xBC, 
  0xB1, 0x1F, 0x2D, 0x3D, 0x47, 0x12, 0xAA, 0xBA, 
  0xBB, 0xCC, 0x80, 0x3D, 0x99, 0xD4, 0x0C, 0xBD, 
  0x6E, 0xFB, 0x3A, 0xBD, 0xB2, 0x69, 0xE8, 0x3D, 
  0xD4, 0x33, 0x83, 0x3C, 0xD3, 0xBE, 0xB1, 0x3C, 
  0x13, 0x58, 0x70, 0x3D, 0x8C, 0x65, 0x61, 0x3C, 
  0x14, 0x33, 0x4A, 0x3D, 0x70, 0x39, 0x14, 0xBD, 
  0x67, 0xED, 0xB9, 0x3C, 0xCB, 0xCD, 0x63, 0x3C, 
  0x67, 0x60, 0x33, 0x3D, 0x6B, 0x34, 0x51, 0xBC, 
  0xE3, 0xB6, 0x72, 0x3D, 0xBC, 0x46, 0xC1, 0xBC, 
  0x23, 0x0C, 0x71, 0x3C, 0x59, 0x97, 0x0E, 0x3D, 
  0xB4, 0x9E, 0x10, 0xBD, 0x3B, 0x2A, 0x13, 0x3D, 
  0xB5, 0xE6, 0x69, 0xBD, 0x5C, 0xCE, 0x71, 0x3D, 
  0xAC, 0x9D, 0x6D, 0xBB, 0xA7, 0x13, 0x8B, 0xBC, 
  0xCF, 0xBA, 0x17, 0x3E, 0xB4, 0x2B, 0x08, 0x3D, 
  0x61, 0x66, 0xFB, 0xBC, 0x0A, 0x6A, 0xC2, 0x3C, 
  0xA5, 0xA2, 0xC2, 0xBC, 0xB0, 0x93, 0xBD, 0x3B, 
  0x24, 0xD1, 0x4C, 0x3D, 0xDD, 0xA0, 0x12, 0xBD, 
  0xC7, 0x6C, 0xAB, 0xBC, 0xE7, 0x26, 0xE3, 0x3D, 
  0xB2, 0x69, 0xA9, 0xB9, 0x10, 0x83, 0xD9, 0x3B, 
  0x6A, 0x2E, 0x0C, 0x3C, 0x42, 0xAC, 0xF8, 0xBC, 
  0x1C, 0x96, 0xFC, 0xBC, 0xA3, 0x3E, 0xAA, 0x3C, 
  0x35, 0x0C, 0x02, 0x3D, 0xA7, 0xEA, 0x36, 0xBD, 
  0x91, 0xF2, 0xF7, 0x3D, 0x17, 0x4B, 0x6B, 0xBD, 
  0x74, 0xE3, 0x27, 0x3D, 0x22, 0xC0, 0xBF, 0x3D, 
  0x21, 0x55, 0x2A, 0x3B, 0x9C, 0xFE, 0x64, 0xBD, 
  0xEC, 0xA4, 0xD7, 0x3D, 0xAF, 0x7E, 0xF2, 0xBC, 
  0xE2, 0x3D, 0x15, 0xBD, 0x55, 0x88, 0x09, 0x3E, 
  0xD5, 0x37, 0x64, 0xBD, 0x63, 0x6C, 0x45, 0xBD, 
  0xD7, 0x7A, 0xC0, 0x3D, 0xDC, 0x5E, 0x24, 0x3D, 
  0x7F, 0xCB, 0xDE, 0xBC, 0xE6, 0x38, 0xAE, 0x3D, 
  0xBE, 0x4D, 0xB1, 0xBA, 0x2F, 0x01, 0x02, 0x3D, 
  0x5F, 0x36, 0xD4, 0x3D, 0x38, 0xE5, 0x1C, 0xBD, 
  0x4A, 0xE3, 0x85, 0xBB, 0xA5, 0x68, 0x3F, 0x3D, 
  0x81, 0x30, 0x91, 0xBB, 0xBE, 0xBE, 0x89, 0xBB, 
  0xDE, 0xB9, 0x01, 0x3E, 0x60, 0x1F, 0x24, 0x3D, 
  0x60, 0xF3, 0x97, 0xBB, 0x76, 0x6D, 0xC3, 0x3D, 
  0x00, 0xDB, 0x47, 0x3C, 0x4E, 0x8A, 0x0B, 0xBD, 
  0x27, 0x57, 0xF9, 0x3D, 0xB5, 0x37, 0xFB, 0x3C, 
  0x0C, 0x05, 0x96, 0xBC, 0xBD, 0x28, 0x00, 0x3E, 
  0x44, 0x65, 0xBD, 0x3C, 0xB8, 0x23, 0x52, 0xBD, 
  0x7F, 0xCB, 0x44, 0x3D, 0x48, 0x87, 0x26, 0x3C, 
  0x72, 0x3F, 0x40, 0x3D, 0x43, 0xE1, 0x24, 0x3E, 
  0x71, 0x18, 0x19, 0x3C, 0x68, 0x72, 0x77, 0x3C, 
  0x1B, 0xA2, 0x46, 0x3C, 0x2E, 0x61, 0x8B, 0xBC, 
  0x1C, 0xF0, 0x2F, 0x3D, 0xE0, 0xC1, 0x4B, 0x3D, 
  0xDD, 0x8B, 0x2D, 0xBD, 0x56, 0x70, 0x08, 0x3D, 
  0x35, 0x74, 0x21, 0x3D, 0xA4, 0x16, 0x12, 0x3C, 
  0xA3, 0x7C, 0x30, 0xBC, 0x4D, 0x26, 0x3E, 0x3D, 
  0xF8, 0x8F, 0x76, 0x3D, 0xF0, 0xA1, 0xFC, 0xBC, 
  0x67, 0xBE, 0x39, 0xBD, 0xE3, 0xEF, 0x81, 0xBC, 
  0xB6, 0x67, 0x9B, 0xBC, 0x72, 0x13, 0x37, 0x3D, 
  0x05, 0xBA, 0x51, 0xBD, 0x49, 0xA3, 0x31, 0xBC, 
  0x20, 0x64, 0x49, 0xBB, 0xED, 0x70, 0x82, 0xBC, 
  0xE4, 0xD8, 0xB6, 0x3C, 0xB5, 0xE1, 0x4D, 0x3D, 
  0x4A, 0x2B, 0xD8, 0x3C, 0xE1, 0xC9, 0x13, 0xBD, 
  0x83, 0x0C, 0x05, 0xBD, 0xD2, 0x39, 0xA6, 0x3C, 
  0x41, 0x9B, 0xD3, 0x3C, 0x35, 0xCF, 0xD4, 0x3C, 
  0x7C, 0x55, 0xF1, 0xBC, 0xAC, 0xF4, 0xC6, 0x3C, 
  0xCD, 0x92, 0x0A, 0x3D, 0x09, 0x45, 0x19, 0x3D, 
  0x5A, 0x7F, 0x11, 0xBD, 0x24, 0x60, 0x9C, 0xBD, 
  0xFC, 0x14, 0x05, 0xBD, 0xA3, 0xD8, 0x7F, 0x3B, 
  0x8E, 0xC8, 0x9D, 0xBD, 0xC7, 0xBD, 0x34, 0x3D, 
  0xFA, 0x05, 0xA1, 0x3C, 0x66, 0xC7, 0x83, 0xBC, 
  0x41, 0xC6, 0x14, 0x3A, 0xCA, 0x37, 0x32, 0x3C, 
  0x00, 0xEE, 0xFF, 0xBC, 0xAB, 0x3B, 0x41, 0xBB, 
  0x8D, 0xBD, 0x17, 0xBD, 0xD5, 0xF4, 0x63, 0xBD, 
  0x11, 0x25, 0x66, 0x3D, 0x50, 0xB4, 0x02, 0x3D, 
  0xAA, 0x58, 0x29, 0xBD, 0x74, 0x7F, 0xDF, 0x3C, 
  0x28, 0x79, 0xB8, 0xBB, 0x09, 0xEB, 0x61, 0xBD, 
  0x79, 0xF5, 0x03, 0xBD, 0x80, 0xBC, 0x65, 0xBD, 
  0x28, 0xA7, 0x82, 0xBD, 0x7D, 0xD0, 0x28, 0xBD, 
  0x1A, 0x84, 0x30, 0x3D, 0x9B, 0x81, 0xD4, 0xBB, 
  0x6A, 0xD0, 0xFD, 0x3C, 0x10, 0xBE, 0x7E, 0xBD, 
  0xA2, 0x6F, 0x50, 0x3C, 0xA1, 0xE0, 0x22, 0x3D, 
  0x69, 0xDE, 0xC5, 0x3C, 0x73, 0x6B, 0x0D, 0xBD, 
  0x09, 0x06, 0xDE, 0xBC, 0x66, 0xF3, 0xE7, 0xBC, 
  0xD4, 0x58, 0x55, 0xBD, 0xF8, 0xC5, 0x83, 0x3D, 
  0x3F, 0x5F, 0x02, 0x3C, 0x27, 0xD9, 0xC4, 0xBC, 
  0x18, 0x00, 0x65, 0x3D, 0x70, 0xE2, 0x21, 0x3D, 
  0x21, 0xB7, 0x82, 0x3C, 0x1F, 0xDD, 0x2B, 0x3D, 
  0x87, 0x85, 0x49, 0x3D, 0x30, 0x49, 0xC3, 0x3D, 
  0xC3, 0xA7, 0x8D, 0xBB, 0x08, 0x17, 0x8C, 0xBC, 
  0xEF, 0x08, 0x19, 0x3E, 0xC5, 0x2B, 0x8C, 0xBC, 
  0xF6, 0x82, 0x4B, 0x3D, 0xB4, 0x62, 0xD2, 0x3D, 
  0x63, 0x29, 0x17, 0x3D, 0x6F, 0xCA, 0x32, 0x3C, 
  0x35, 0x88, 0x23, 0x3D, 0x60, 0xBE, 0xF5, 0xBC, 
  0x4A, 0x08, 0x2D, 0xBB, 0xF5, 0x35, 0x83, 0x3D, 
  0x70, 0x10, 0x49, 0xBD, 0x1E, 0x88, 0x7C, 0xBC, 
  0x7F, 0x7A, 0x61, 0x3D, 0x2A, 0x85, 0x3F, 0x3D, 
  0x16, 0xAE, 0x1B, 0x3D, 0x5F, 0x38, 0x08, 0x3E, 
  0xA6, 0xAA, 0xE3, 0x3C, 0x7C, 0x54, 0x56, 0x3D, 
  0x6E, 0xA7, 0x67, 0x3D, 0xC4, 0xCA, 0xC4, 0x3C, 
  0xF8, 0x26, 0xF7, 0xBB, 0x39, 0xD7, 0x69, 0x3D, 
  0x62, 0xC0, 0x16, 0xBD, 0x4A, 0xDB, 0x9A, 0xBB, 
  0xE2, 0x1C, 0x0A, 0x3E, 0x9D, 0x55, 0x71, 0xBD, 
  0xC7, 0xB5, 0x69, 0xBD, 0x1F, 0xCD, 0x15, 0x3E, 
  0xA1, 0xDD, 0x58, 0x3A, 0x45, 0x5F, 0xEA, 0xBC, 
  0xDB, 0xC1, 0xC8, 0x3D, 0x91, 0x46, 0xFF, 0x3C, 
  0xAD, 0x9A, 0xE0, 0x3C, 0x4F, 0xD5, 0x9B, 0x3D, 
  0xA3, 0x49, 0xDA, 0x3B, 0x6D, 0x38, 0x9D, 0x3A, 
  0x82, 0xDD, 0x11, 0x3D, 0x14, 0x00, 0x81, 0xBD, 
  0x31, 0xA0, 0x24, 0xBC, 0x35, 0x4B, 0x15, 0x3E, 
  0x20, 0xE0, 0x43, 0x3D, 0x37, 0xEE, 0x94, 0x3D, 
  0x91, 0x86, 0x43, 0x3D, 0xF2, 0x37, 0x7E, 0xBD, 
  0xB3, 0x86, 0x0C, 0x3D, 0x42, 0xEB, 0x86, 0x3D, 
  0xD0, 0x3B, 0x1C, 0x3D, 0x7B, 0x52, 0x4B, 0x3D, 
  0xC6, 0xE2, 0x21, 0x3D, 0x06, 0xF9, 0xE0, 0x3C, 
  0x9E, 0x6E, 0x67, 0x3C, 0xCC, 0x07, 0x67, 0x3D, 
  0x99, 0x13, 0xD7, 0x3C, 0x44, 0x78, 0x3B, 0x3C, 
  0x9A, 0x1B, 0x26, 0x3D, 0xA4, 0xBB, 0x57, 0x3D, 
  0xFF, 0x9F, 0x89, 0x3C, 0x48, 0x92, 0xB9, 0x3D, 
  0x1B, 0xC7, 0xB7, 0xBC, 0xD4, 0x95, 0x01, 0x3D, 
  0x64, 0xD1, 0x68, 0x3D, 0xC7, 0x68, 0x59, 0xBD, 
  0x1F, 0x8D, 0x61, 0x3C, 0xF2, 0xE0, 0xB4, 0xBD, 
  0x71, 0x57, 0x3B, 0xBC, 0x2B, 0xF2, 0x1E, 0xBB, 
  0xF4, 0x44, 0xDC, 0xBD, 0xAA, 0x56, 0x50, 0xBC, 
  0x94, 0x7B, 0x6A, 0x3D, 0xAD, 0x19, 0x04, 0xBD, 
  0x2F, 0xB5, 0xE1, 0x3C, 0x07, 0xE0, 0x5D, 0x3D, 
  0x5C, 0xD1, 0x45, 0xBC, 0xA6, 0x4A, 0x63, 0x3D, 
  0xE8, 0xA8, 0x60, 0x3D, 0xD5, 0x4B, 0x84, 0xBC, 
  0xE8, 0xD4, 0xE5, 0xBC, 0xBF, 0x5E, 0x05, 0x3D, 
  0xCD, 0x66, 0x19, 0x3C, 0xCE, 0x07, 0x04, 0x3D, 
  0x7D, 0xD8, 0xC7, 0xBB, 0x99, 0x9D, 0x09, 0xBD, 
  0xEF, 0x67, 0x35, 0xBD, 0xAE, 0x91, 0x45, 0xBD, 
  0x86, 0xDB, 0x10, 0xBD, 0x47, 0x20, 0x93, 0x3B, 
  0x5E, 0x97, 0xBE, 0x3C, 0xD3, 0xB5, 0x83, 0xBD, 
  0xA2, 0x7A, 0x77, 0x3D, 0xD7, 0x8E, 0x2B, 0xBC, 
  0xE6, 0x38, 0xBD, 0xBC, 0x05, 0x14, 0x51, 0x3C, 
  0xA3, 0xE4, 0xB8, 0xBC, 0x41, 0x81, 0xFA, 0xBC, 
  0xEB, 0x99, 0xEB, 0xBB, 0xD0, 0xC9, 0x3B, 0xBD, 
  0x9F, 0xC0, 0x68, 0xBB, 0x35, 0x1A, 0x40, 0xBC, 
  0xD7, 0x8B, 0x51, 0xBB, 0x16, 0xCD, 0xB1, 0xBD, 
  0xEC, 0xA4, 0x9C, 0x3D, 0x09, 0x57, 0x37, 0xBD, 
  0xBB, 0x21, 0x25, 0xBD, 0x47, 0x04, 0x63, 0xBC, 
  0xEC, 0x63, 0x92, 0x3C, 0xD4, 0xE1, 0xE3, 0xBB, 
  0x49, 0x97, 0x82, 0xBC, 0x40, 0x99, 0x06, 0xBD, 
  0x2F, 0x86, 0xA6, 0x3C, 0x3A, 0x48, 0x1B, 0x3D, 
  0x01, 0x4E, 0x93, 0xBC, 0xAB, 0x06, 0x7C, 0xBD, 
  0x8E, 0x62, 0x5B, 0x3D, 0x05, 0x17, 0x68, 0x3D, 
  0xB8, 0x9B, 0x1D, 0x3C, 0x9B, 0x64, 0x55, 0x3C, 
  0xE4, 0x3D, 0x07, 0xBD, 0x72, 0xB2, 0x34, 0xBD, 
  0xDE, 0xD5, 0x1E, 0xBD, 0x9C, 0x50, 0x84, 0x3C, 
  0x11, 0x47, 0xF0, 0xBA, 0xD1, 0x46, 0xC9, 0xBB, 
  0x43, 0xF4, 0x7C, 0x3D, 0xAD, 0x28, 0xFD, 0x3C, 
  0x8F, 0x2E, 0x43, 0x3D, 0xBC, 0xE2, 0x8B, 0xBB, 
  0xFF, 0x7F, 0xB1, 0x3B, 0xDF, 0x55, 0x9F, 0xBC, 
  0xE5, 0x45, 0x02, 0x3D, 0xD0, 0x3D, 0x48, 0xBD, 
  0xE8, 0xAA, 0x87, 0xBC, 0x26, 0xEF, 0xE4, 0xBC, 
  0x7B, 0xDE, 0x4C, 0xBD, 0xC5, 0x8B, 0x42, 0x3D, 
  0xD6, 0xCF, 0x40, 0xBC, 0x1B, 0x7B, 0xC1, 0x3C, 
  0xF8, 0x1F, 0xBA, 0x3C, 0xB7, 0xE7, 0xBC, 0x3B, 
  0x2B, 0x90, 0xDF, 0x3D, 0x50, 0x07, 0x8E, 0xBA, 
  0x0C, 0x63, 0xE3, 0x3B, 0x36, 0x62, 0xC3, 0x3D, 
  0x08, 0xB4, 0x87, 0x3C, 0xFB, 0xBD, 0x89, 0x3C, 
  0xAA, 0x97, 0x36, 0x3D, 0x38, 0x9D, 0xA8, 0xBC, 
  0x93, 0x78, 0x57, 0xBC, 0xDD, 0xB0, 0xB8, 0x3C, 
  0x47, 0x6A, 0x55, 0xBD, 0x7E, 0xE8, 0x03, 0xBD, 
  0x01, 0x4F, 0xDA, 0x3C, 0xAD, 0x1C, 0x29, 0xBD, 
  0x4D, 0x90, 0x02, 0x3D, 0x38, 0x44, 0xAD, 0x3D, 
  0x26, 0x95, 0x1D, 0xBC, 0x66, 0x73, 0x4B, 0xBD, 
  0xB6, 0x52, 0x53, 0x3D, 0xC9, 0x33, 0x0A, 0xBD, 
  0xAE, 0x4E, 0x4F, 0xBD, 0x48, 0x72, 0x70, 0x3D, 
  0xCA, 0xAC, 0x99, 0x3C, 0xB9, 0xF1, 0x55, 0xBB, 
  0xB2, 0x7A, 0x67, 0x3D, 0xD0, 0x62, 0x2C, 0xBD, 
  0x9D, 0x67, 0x99, 0xBD, 0x4E, 0x47, 0xD3, 0x3D, 
  0xCA, 0xD4, 0xE1, 0xBC, 0x17, 0x82, 0x23, 0xBD, 
  0x60, 0xBA, 0xCB, 0x3C, 0x86, 0x46, 0x98, 0xBC, 
  0x16, 0x6F, 0x3F, 0xBB, 0x87, 0x6E, 0xE6, 0x3C, 
  0xB5, 0xDF, 0x6F, 0xBD, 0xDC, 0xB9, 0xFB, 0xBC, 
  0x5B, 0x9A, 0xDE, 0x3D, 0x4C, 0x41, 0x46, 0xBD, 
  0x33, 0xD1, 0x37, 0x3D, 0x09, 0x78, 0x30, 0x3D, 
  0xDD, 0xE2, 0x97, 0xBB, 0x0F, 0xFA, 0x37, 0x3B, 
  0xA1, 0x49, 0x49, 0x3C, 0x58, 0x84, 0x49, 0x3C, 
  0xF9, 0xE8, 0x00, 0x3D, 0xCD, 0xAC, 0xC5, 0x3B, 
  0x47, 0x94, 0x02, 0xBD, 0x26, 0x40, 0xDC, 0x3B, 
  0x18, 0xEC, 0x64, 0x3D, 0x98, 0x03, 0x27, 0xBC, 
  0xBA, 0xCB, 0x48, 0x3B, 0x82, 0xA5, 0x8E, 0x3C, 
  0x11, 0x4D, 0x23, 0x3D, 0x62, 0x96, 0x81, 0xBC, 
  0xB8, 0x19, 0xB4, 0xBC, 0xAC, 0x03, 0xCD, 0xBB, 
  0xAD, 0x35, 0x42, 0x3D, 0x90, 0x18, 0x2C, 0x3C, 
  0x0D, 0xCF, 0xA7, 0xBC, 0x58, 0x88, 0x54, 0xBD, 
  0x8A, 0xB0, 0x01, 0xBD, 0x35, 0xE4, 0xA7, 0xBC, 
  0xD7, 0xAF, 0x8F, 0x3C, 0x9D, 0x76, 0x1C, 0x3D, 
  0x9B, 0x23, 0x39, 0xBC, 0x05, 0xFA, 0x8E, 0xBC, 
  0x7B, 0x54, 0x84, 0xBD, 0xFC, 0x52, 0x8C, 0x3C, 
  0x02, 0x5C, 0x9D, 0xBB, 0x42, 0x96, 0x11, 0x3C, 
  0x1E, 0x4E, 0xC2, 0xBC, 0x8E, 0xE2, 0x13, 0xBD, 
  0x05, 0xF3, 0x03, 0xBD, 0x5F, 0xEF, 0x9A, 0x3C, 
  0xE0, 0xDA, 0x6D, 0x3C, 0x12, 0x82, 0x07, 0x3D, 
  0x85, 0x7E, 0x9C, 0x3B, 0xDA, 0x07, 0x4C, 0x3D, 
  0xDA, 0xEA, 0x30, 0x3D, 0x6B, 0x15, 0x12, 0x3C, 
  0x62, 0xEC, 0xCA, 0x3C, 0xEC, 0x06, 0x52, 0xBD, 
  0x42, 0x17, 0xDE, 0x3C, 0x8B, 0xBA, 0x84, 0xBA, 
  0x69, 0x16, 0x05, 0x3D, 0xD3, 0x00, 0x2E, 0xBD, 
  0x0F, 0x20, 0xCA, 0xBA, 0x5D, 0x7C, 0x83, 0xBD, 
  0x0A, 0x7E, 0xD4, 0xBC, 0x5C, 0x33, 0x6D, 0xBC, 
  0x23, 0x1B, 0x06, 0xBB, 0x69, 0x3B, 0x71, 0x3D, 
  0x59, 0x86, 0xC5, 0xBC, 0x7E, 0x5A, 0x12, 0xBD, 
  0xF1, 0x7F, 0xB5, 0xBA, 0xCA, 0xB0, 0xA0, 0x3B, 
  0x0B, 0x78, 0x89, 0xBD, 0xF1, 0x17, 0x5F, 0xBB, 
  0xBE, 0xDA, 0x36, 0x3B, 0xA8, 0x27, 0x3B, 0xBD, 
  0xB8, 0x52, 0x31, 0xBD, 0xA6, 0xFF, 0xE7, 0x3C, 
  0x82, 0x0C, 0x9C, 0xBD, 0x72, 0xAF, 0x71, 0x3D, 
  0x64, 0xC9, 0x22, 0xBD, 0xC4, 0xDC, 0xD3, 0xBC, 
  0x2A, 0xEA, 0xF3, 0xBC, 0x2C, 0x89, 0x07, 0xBD, 
  0xAB, 0x9E, 0x38, 0xBB, 0xAE, 0xE4, 0xEF, 0xBC, 
  0x9B, 0x6B, 0x26, 0x3D, 0x85, 0xA7, 0x11, 0xBD, 
  0x73, 0xA9, 0x18, 0x3D, 0xC3, 0x30, 0xBB, 0x3C, 
  0xED, 0x70, 0x97, 0xBD, 0xCF, 0xD8, 0xB0, 0xBC, 
  0xC3, 0xCE, 0x0E, 0x3D, 0x7B, 0x92, 0x7D, 0xBD, 
  0xF7, 0x79, 0x14, 0x3D, 0x31, 0x07, 0x78, 0x3D, 
  0xC0, 0xAA, 0xCA, 0x3C, 0xA5, 0xA4, 0xFB, 0xBC, 
  0xDC, 0xD1, 0x80, 0x3D, 0x10, 0xBA, 0xAE, 0xBC, 
  0xD0, 0x67, 0x1D, 0x3D, 0x11, 0x41, 0x86, 0xBD, 
  0xA5, 0x02, 0x9F, 0x3C, 0x91, 0xD8, 0x56, 0x3D, 
  0x60, 0x2B, 0x63, 0x3D, 0x0F, 0xB6, 0xA9, 0x3C, 
  0xD4, 0xCD, 0x39, 0xBD, 0x50, 0xAA, 0xA7, 0xBC, 
  0x0C, 0x5C, 0xB6, 0xBB, 0xB5, 0x44, 0x9E, 0xBC, 
  0x3F, 0x8F, 0x22, 0xBD, 0xDA, 0x5A, 0x80, 0xBC, 
  0x15, 0xB2, 0x17, 0xBD, 0x49, 0xE4, 0x9C, 0x3C, 
  0xD5, 0xB9, 0xDE, 0x3C, 0x10, 0xF2, 0x52, 0xBD, 
  0xCA, 0x50, 0x0F, 0xBC, 0x1D, 0xA2, 0xC6, 0x3C, 
  0x99, 0x66, 0xBE, 0xBB, 0x1B, 0xAB, 0x75, 0x3C, 
  0xEB, 0xFF, 0xF4, 0x3C, 0xC2, 0xB2, 0xF5, 0x3C, 
  0xD0, 0x9C, 0x4C, 0xBD, 0x40, 0xC0, 0x8B, 0x3D, 
  0x77, 0xC1, 0xD1, 0x3C, 0xF4, 0xCB, 0x44, 0x3A, 
  0x04, 0x6F, 0x8E, 0x3D, 0x56, 0x4A, 0xBC, 0xBC, 
  0xDD, 0xA6, 0x23, 0x3D, 0x7D, 0xBD, 0xF9, 0x3D, 
  0x44, 0x93, 0x11, 0xBD, 0x21, 0xDE, 0xE8, 0xBC, 
  0x99, 0x24, 0x03, 0x3E, 0x2D, 0x73, 0x63, 0xBD, 
  0xEC, 0xF6, 0xF0, 0x3C, 0xED, 0x70, 0xA2, 0x3D, 
  0x1B, 0xE6, 0x95, 0xBC, 0xCB, 0x84, 0x83, 0xBC, 
  0xFF, 0x14, 0x4B, 0x3D, 0x0E, 0x82, 0x43, 0xBD, 
  0x33, 0x9F, 0x5D, 0xBD, 0xDF, 0x5D, 0xDD, 0x3D, 
  0x2A, 0xE1, 0x8C, 0xBC, 0x26, 0x1B, 0x16, 0xBD, 
  0xB7, 0xE1, 0x27, 0x3D, 0xB4, 0x01, 0x08, 0x3D, 
  0xC1, 0xA1, 0x01, 0x3D, 0xD2, 0xFF, 0x45, 0xBC, 
  0x02, 0x2A, 0xEA, 0xBC, 0xEF, 0xDE, 0xC5, 0x3C, 
  0x09, 0x3A, 0x77, 0x3B, 0x3C, 0x32, 0x6A, 0x3D, 
  0x1C, 0x53, 0x24, 0xBD, 0xFD, 0xCA, 0x1C, 0x3D, 
  0x30, 0x68, 0x9E, 0x3C, 0x4B, 0x0E, 0xED, 0x3B, 
  0xF4, 0x75, 0x12, 0x3D, 0xC1, 0x1F, 0xB6, 0xBC, 
  0x94, 0xE3, 0x4C, 0xBD, 0x96, 0xD6, 0x8E, 0xBC, 
  0x49, 0xC8, 0x4C, 0x3C, 0x19, 0x94, 0x2F, 0x3D, 
  0x2F, 0x1A, 0x85, 0xBC, 0x0E, 0x0C, 0xC0, 0xBC, 
  0x9D, 0x51, 0xFB, 0xBC, 0x4A, 0x25, 0x90, 0x3A, 
  0x97, 0xBF, 0x53, 0x3D, 0xED, 0xE7, 0x68, 0xBD, 
  0x46, 0x15, 0x12, 0x3D, 0x9A, 0xA2, 0x48, 0xBC, 
  0x44, 0x90, 0xE0, 0xBC, 0xD4, 0x1C, 0x11, 0x3D, 
  0xE3, 0x0F, 0x83, 0x3D, 0x1A, 0x64, 0x2C, 0xBC, 
  0x7E, 0xFA, 0x6F, 0xBD, 0xBB, 0xCA, 0x4A, 0xBD, 
  0xB0, 0x5E, 0xAA, 0x3D, 0x1D, 0x4A, 0x80, 0xBD, 
  0xEB, 0x7F, 0x2E, 0x3B, 0xCD, 0x3C, 0xC5, 0x3C, 
  0x3E, 0xBF, 0x8A, 0xBD, 0x35, 0x0E, 0x1A, 0xBC, 
  0xC1, 0x8A, 0x75, 0x3D, 0x7D, 0x51, 0xF8, 0xBC, 
  0x16, 0xB1, 0x58, 0xBC, 0x61, 0xD1, 0x08, 0x3D, 
  0x7A, 0x32, 0x7D, 0x3C, 0xAA, 0xF3, 0x0D, 0x3C, 
  0x7C, 0xC3, 0x9B, 0x3C, 0x93, 0xCB, 0x0A, 0xBC, 
  0xCD, 0xCD, 0x2C, 0x3D, 0xED, 0x65, 0x77, 0xBD, 
  0x8E, 0xA5, 0xA8, 0xBC, 0xD9, 0x81, 0x87, 0xBC, 
  0x8D, 0x4D, 0x81, 0x3D, 0xE1, 0x4C, 0xAE, 0x3C, 
  0x54, 0x66, 0x83, 0x3D, 0x1B, 0x74, 0x26, 0xBD, 
  0x1C, 0x52, 0xE5, 0xBC, 0x6D, 0x2F, 0x46, 0xBC, 
  0xE9, 0x7A, 0x3E, 0x3D, 0x22, 0x89, 0x7C, 0xBD, 
  0xE3, 0xCA, 0x79, 0x3C, 0x7B, 0x75, 0x4F, 0x3D, 
  0x48, 0xEF, 0x95, 0xBD, 0x7F, 0x39, 0xCC, 0x3C, 
  0x1A, 0xE8, 0xBC, 0xBA, 0xBA, 0x11, 0xAC, 0xBD, 
  0x24, 0x1E, 0x08, 0x3C, 0xE6, 0x17, 0x59, 0xBB, 
  0xD4, 0x98, 0xCA, 0x3C, 0x9D, 0xD8, 0x62, 0x3D, 
  0xD4, 0xC6, 0xE6, 0xBC, 0xB3, 0x13, 0x96, 0xBC, 
  0x92, 0xCA, 0x22, 0x3C, 0x37, 0x56, 0xC1, 0xBC, 
  0xC6, 0x6B, 0x87, 0xBD, 0x1A, 0x40, 0x26, 0xBD, 
  0x89, 0x96, 0x3E, 0x3D, 0xBF, 0x03, 0xBC, 0xBC, 
  0xD9, 0x66, 0xF0, 0xBC, 0xFC, 0x27, 0x03, 0xBD, 
  0xD6, 0xAA, 0x1C, 0xBD, 0xA1, 0x20, 0xAC, 0x3B, 
  0xD8, 0xE3, 0x98, 0x3C, 0x51, 0x29, 0xB1, 0xBD, 
  0x9E, 0x3F, 0xF5, 0xBC, 0xDD, 0x73, 0xA1, 0xBC, 
  0x2D, 0xE7, 0xCE, 0x3C, 0x7B, 0xD0, 0x52, 0x3D, 
  0x4B, 0x02, 0x86, 0x3D, 0x08, 0xA2, 0x60, 0xBD, 
  0x58, 0xC1, 0x50, 0xBD, 0x1D, 0x90, 0xA0, 0xBC, 
  0x1C, 0x98, 0xAD, 0xBD, 0xB3, 0x0B, 0x20, 0x3D, 
  0xAF, 0x90, 0x42, 0x3A, 0x17, 0x57, 0x51, 0x3D, 
  0x06, 0xF2, 0xDF, 0xBB, 0x90, 0xBC, 0x8B, 0x3B, 
  0xA9, 0x5C, 0xBA, 0x3C, 0xC9, 0x9D, 0xA4, 0x3C, 
  0x9D, 0xB5, 0x90, 0x3C, 0x56, 0xC6, 0x04, 0x3D, 
  0x2A, 0x57, 0x38, 0xBD, 0x11, 0xCE, 0x06, 0x3D, 
  0xF4, 0x74, 0xA9, 0xBC, 0x4E, 0x5E, 0xAF, 0xBC, 
  0x20, 0xCC, 0x01, 0x3D, 0xF1, 0x6D, 0xFA, 0xBC, 
  0x5B, 0x94, 0x87, 0xBC, 0x4D, 0xDA, 0x8D, 0x3C, 
  0x69, 0xE4, 0xC0, 0x3B, 0x1C, 0x56, 0x9F, 0x3C, 
  0x4A, 0x37, 0x53, 0x3D, 0x6F, 0x0B, 0x54, 0x3D, 
  0x4C, 0xA8, 0xA7, 0xBA, 0xD9, 0xAD, 0x58, 0xBC, 
  0xE4, 0x26, 0xBD, 0x3C, 0x65, 0xAE, 0x67, 0x3D, 
  0x39, 0xE2, 0x24, 0xBD, 0xB2, 0xDB, 0xEB, 0xBC, 
  0xC9, 0x97, 0x63, 0x3C, 0x84, 0xF0, 0x2E, 0x3D, 
  0xA3, 0xE5, 0x10, 0x3D, 0x9C, 0x7B, 0x8E, 0x3C, 
  0x83, 0xBE, 0x73, 0xBD, 0x78, 0x0E, 0x9F, 0x3D, 
  0x18, 0xF6, 0xF1, 0xBC, 0x1D, 0x5A, 0xDC, 0xBC, 
  0xC4, 0xA7, 0x74, 0x3D, 0x7C, 0x0E, 0x28, 0xBD, 
  0x3A, 0xBF, 0xF0, 0x3C, 0x5A, 0x95, 0xB4, 0x3C, 
  0x32, 0x8B, 0x3C, 0xBD, 0x94, 0xD8, 0x56, 0xBC, 
  0xBE, 0x77, 0x6A, 0x3D, 0x78, 0x6B, 0x22, 0xBD, 
  0x0F, 0x56, 0xCC, 0xBC, 0x7A, 0x0B, 0x97, 0x3D, 
  0xA4, 0xFC, 0x70, 0x3C, 0x13, 0x75, 0x62, 0xBB, 
  0x35, 0xE5, 0x1C, 0x3D, 0x17, 0x23, 0x07, 0xBD, 
  0x1E, 0xE5, 0x99, 0xBC, 0x81, 0xF4, 0xE3, 0xBC, 
  0x1A, 0xBD, 0xBB, 0x3C, 0x29, 0x42, 0x48, 0xBD, 
  0xFC, 0xE3, 0x1B, 0xBD, 0xE7, 0x53, 0x68, 0x3C, 
  0x8E, 0x03, 0x1B, 0x3D, 0xE2, 0x20, 0xB0, 0xBC, 
  0x85, 0x84, 0x8D, 0x3A, 0x3A, 0xAC, 0xFD, 0x3B, 
  0xF9, 0xF5, 0x9E, 0xBC, 0x7D, 0xAC, 0x77, 0x3C, 
  0x94, 0x39, 0x83, 0x3D, 0x76, 0x97, 0x5E, 0xBD, 
  0x7F, 0xC9, 0xD1, 0xBA, 0x39, 0x60, 0xCF, 0x3B, 
  0xA6, 0xD1, 0x2C, 0x3D, 0x62, 0x2E, 0xE9, 0x3C, 
  0x90, 0x97, 0xA4, 0xBB, 0x3B, 0x18, 0x7B, 0xBD, 
  0x46, 0x50, 0xEB, 0xBB, 0x60, 0x04, 0x96, 0x3D, 
  0x4E, 0x06, 0x8A, 0xBD, 0xE3, 0x94, 0x27, 0x3A, 
  0xFC, 0x7C, 0x68, 0xB9, 0x42, 0x8D, 0xB5, 0xBD, 
  0x5C, 0x86, 0x74, 0x3D, 0xDC, 0xB7, 0x2C, 0x3C, 
  0x9E, 0xFD, 0x28, 0x3D, 0x01, 0x81, 0x9A, 0x3D, 
  0x82, 0x9E, 0xC7, 0x3D, 0x9A, 0x6B, 0x6A, 0x3C, 
  0x2C, 0x60, 0xD6, 0x3B, 0xFC, 0xFA, 0x48, 0x3D, 
  0x69, 0xF0, 0x0D, 0xBD, 0x16, 0xA6, 0xB3, 0x3D, 
  0xE2, 0x0D, 0xEF, 0x3B, 0xB8, 0x10, 0xAB, 0x3A, 
  0x89, 0x18, 0x61, 0xBC, 0x41, 0x1F, 0x03, 0x3B, 
  0x38, 0x35, 0x24, 0x3D, 0x21, 0x62, 0x6A, 0xBC, 
  0x51, 0x09, 0x6C, 0x3D, 0xD5, 0x10, 0xA1, 0xBD, 
  0x6C, 0xB6, 0x4A, 0x3D, 0x83, 0x93, 0xD1, 0xBC, 
  0x1E, 0xAD, 0xA5, 0xBC, 0x19, 0xB1, 0x4A, 0xBC, 
  0xF2, 0x0A, 0xFC, 0xBA, 0x64, 0xBD, 0x8B, 0xBC, 
  0x09, 0xC5, 0xB4, 0x3C, 0x95, 0x6A, 0x3A, 0xBC, 
  0x8B, 0x95, 0x96, 0xBB, 0x66, 0xD1, 0x46, 0x3D, 
  0x86, 0x1E, 0x8C, 0x3D, 0xB6, 0x01, 0x51, 0xBC, 
  0xB1, 0xFA, 0xD9, 0x3C, 0x63, 0xA0, 0x05, 0x3D, 
  0x93, 0x2C, 0xC9, 0x3C, 0xAD, 0xAC, 0xB0, 0x3B, 
  0x48, 0xCB, 0x36, 0x3D, 0x5E, 0x91, 0xDA, 0xBC, 
  0x2E, 0x67, 0x37, 0x3D, 0x14, 0x15, 0x10, 0xBD, 
  0x68, 0xDB, 0x03, 0x3B, 0x40, 0x66, 0xDC, 0xBC, 
  0x80, 0x83, 0x89, 0x3D, 0x4F, 0xBE, 0xA0, 0xBD, 
  0x30, 0x21, 0x7A, 0x3C, 0xB4, 0xA5, 0x50, 0x3D, 
  0x5C, 0x58, 0xE8, 0x3B, 0x9A, 0x30, 0xAC, 0xBC, 
  0xE5, 0x7A, 0x9C, 0xBC, 0x5B, 0xE7, 0xDA, 0xBB, 
  0xF9, 0x16, 0xE7, 0x3B, 0xE5, 0x45, 0x86, 0x3C, 
  0xC2, 0x95, 0xD1, 0x3C, 0xAA, 0x1C, 0x13, 0x3C, 
  0x80, 0x59, 0x07, 0x3D, 0xF9, 0x84, 0xB8, 0xBD, 
  0xD8, 0xCA, 0x64, 0x3D, 0xAE, 0x02, 0xE5, 0xBC, 
  0xFC, 0x40, 0x75, 0x3B, 0xA8, 0x8B, 0x3D, 0x3D, 
  0x41, 0x7A, 0x70, 0x3A, 0x5F, 0x9F, 0x8B, 0xBD, 
  0x94, 0x32, 0x4E, 0xBD, 0x52, 0xB1, 0x84, 0x3D, 
  0x39, 0x59, 0x22, 0x3C, 0xEE, 0xA1, 0x26, 0xBD, 
  0x20, 0x0F, 0x69, 0xBD, 0x77, 0x18, 0xC7, 0xBC, 
  0x85, 0x19, 0x71, 0xBD, 0x47, 0x57, 0x74, 0xBC, 
  0xBD, 0xB5, 0x4C, 0xBD, 0x24, 0xA2, 0x02, 0xBC, 
  0x0E, 0x0A, 0xD8, 0x3C, 0xFE, 0x34, 0x3A, 0x3D, 
  0x09, 0xF4, 0x0E, 0xBD, 0x09, 0xF7, 0x5E, 0x3D, 
  0x6D, 0xEB, 0x0D, 0x3C, 0xE0, 0x54, 0xF4, 0xBC, 
  0xCD, 0x83, 0x09, 0xBD, 0x77, 0x5C, 0xAC, 0x3C, 
  0xBE, 0x47, 0xED, 0x3C, 0x1A, 0xD5, 0x58, 0xBD, 
  0x5B, 0xA1, 0x49, 0x3D, 0x29, 0x18, 0x4B, 0x3D, 
  0xB5, 0xB1, 0x8F, 0xBC, 0x78, 0xCB, 0x5D, 0xBC, 
  0xEE, 0xDC, 0xCD, 0x3C, 0x9A, 0xF8, 0x05, 0x3D, 
  0x0C, 0x0A, 0x3B, 0x3D, 0x9F, 0xC3, 0x66, 0x3C, 
  0x0C, 0x3F, 0xE2, 0x3C, 0x52, 0x09, 0x28, 0x3B, 
  0x1D, 0x6E, 0x3A, 0xBD, 0x18, 0x0B, 0x72, 0xBD, 
  0xDF, 0xEE, 0xF4, 0xBB, 0xA6, 0xAC, 0x35, 0x3D, 
  0x4F, 0x8C, 0x20, 0x3C, 0x8A, 0xBD, 0x10, 0x3E, 
  0x27, 0xFC, 0x41, 0x3C, 0xCE, 0xA9, 0x1C, 0xBD, 
  0x2E, 0x14, 0xE1, 0x3D, 0xCB, 0x26, 0x7A, 0xBD, 
  0x7E, 0x0A, 0xD5, 0x3C, 0xC5, 0x1A, 0xF1, 0x3D, 
  0xCB, 0x51, 0x5D, 0xBD, 0x0B, 0x2E, 0x76, 0xBC, 
  0x34, 0x5E, 0x98, 0x3D, 0x65, 0xBC, 0x83, 0xBD, 
  0xE5, 0x64, 0x21, 0x3C, 0x9D, 0x46, 0x6E, 0xBB, 
  0xA3, 0x67, 0xF4, 0xBA, 0x2E, 0xAA, 0x4E, 0xBC, 
  0x09, 0x98, 0x36, 0xBB, 0xE5, 0x04, 0x12, 0xBC, 
  0xFA, 0x13, 0x1E, 0xBD, 0xAF, 0x90, 0x01, 0xBC, 
  0x4F, 0x3B, 0x86, 0xBD, 0x46, 0x86, 0xE5, 0x3C, 
  0x0B, 0x0A, 0x93, 0xBB, 0x93, 0xB9, 0x03, 0x3D, 
  0x49, 0xB2, 0x06, 0xBD, 0x26, 0xE7, 0x69, 0x3D, 
  0xB4, 0x03, 0x34, 0x3D, 0x98, 0x5B, 0x11, 0x3A, 
  0x96, 0x50, 0x5E, 0xBC, 0x5F, 0x3B, 0x42, 0xBC, 
  0xC4, 0x2C, 0x42, 0xBC, 0x57, 0x64, 0x2F, 0xBC, 
  0x84, 0x1A, 0xF3, 0xBC, 0xB3, 0x24, 0x07, 0xBD, 
  0x85, 0xCF, 0x06, 0xBD, 0xF6, 0x3F, 0xDF, 0x3C, 
  0x76, 0xF9, 0x09, 0xBC, 0x0A, 0x93, 0x99, 0xBD, 
  0xCF, 0xCD, 0x97, 0x3D, 0x24, 0x3F, 0x24, 0x3D, 
  0xF6, 0x58, 0x89, 0xBD, 0x77, 0x3A, 0xD4, 0xBB, 
  0x8F, 0xA8, 0xF4, 0xBB, 0x76, 0x40, 0x91, 0xBB, 
  0xA3, 0x09, 0xB7, 0x3D, 0x9F, 0xC7, 0x00, 0xBB, 
  0xA3, 0x2A, 0x87, 0xBD, 0x46, 0xDA, 0x78, 0xBC, 
  0x01, 0x03, 0x45, 0x3D, 0x11, 0x9C, 0x04, 0xBD, 
  0x70, 0xAB, 0xEE, 0x3D, 0xC2, 0xCF, 0xF9, 0x3C, 
  0xE4, 0xDF, 0x69, 0xBC, 0xA8, 0x4F, 0x7D, 0x3D, 
  0x08, 0xD7, 0x65, 0x3D, 0xD1, 0x14, 0x25, 0xBD, 
  0xB0, 0xBE, 0xFC, 0x3D, 0x4B, 0xEB, 0x55, 0xBD, 
  0x9F, 0x5D, 0x63, 0xBD, 0x24, 0xAC, 0x29, 0x3D, 
  0x11, 0x9D, 0x5E, 0x3C, 0x8F, 0xD4, 0x18, 0xBD, 
  0xAB, 0x9E, 0x04, 0x3B, 0x2A, 0xB8, 0x44, 0x3D, 
  0xFC, 0x83, 0x99, 0x3C, 0x9F, 0x9F, 0x28, 0x3A, 
  0x34, 0x75, 0x5D, 0x3D, 0xBC, 0xE6, 0xC5, 0xBD, 
  0xE4, 0xF5, 0xA0, 0x3D, 0x44, 0x86, 0xE2, 0xBC, 
  0x55, 0x9C, 0x01, 0xBC, 0x13, 0xC2, 0x84, 0xB9, 
  0xAE, 0x43, 0xB1, 0x3D, 0xCA, 0x14, 0xCD, 0xBD, 
  0x08, 0xFA, 0x92, 0x3D, 0x1B, 0x3D, 0x55, 0x3D, 
  0xFE, 0x74, 0x7C, 0x3C, 0x3D, 0x38, 0xB8, 0x3C, 
  0xCD, 0x8A, 0x4D, 0x3D, 0x1D, 0x7F, 0x14, 0xBD, 
  0x46, 0x5E, 0xFE, 0xBB, 0x2A, 0x8A, 0x4B, 0x3C, 
  0x61, 0xB4, 0xC2, 0xBD, 0xFD, 0x6E, 0x82, 0x3D, 
  0x07, 0x11, 0xDC, 0xBC, 0x6A, 0xDD, 0x18, 0x3B, 
  0xAB, 0x61, 0x46, 0x3D, 0x36, 0x66, 0x4B, 0xBD, 
  0x5A, 0x06, 0x5B, 0xBD, 0xBC, 0xB5, 0xA7, 0x3D, 
  0x7D, 0x2B, 0xC2, 0xBB, 0x84, 0x8C, 0x72, 0xBD, 
  0x7D, 0xF4, 0xA1, 0x3D, 0x42, 0xCC, 0x58, 0xBD, 
  0x9D, 0x90, 0xAD, 0xBD, 0x9B, 0x74, 0xB7, 0x3C, 
  0xB3, 0xA8, 0xAE, 0xBB, 0xE1, 0xB7, 0x7D, 0xBD, 
  0xA9, 0x50, 0x73, 0x3D, 0xC8, 0xAE, 0xA5, 0xBD, 
  0xCB, 0x08, 0xAE, 0xBD, 0x36, 0x8D, 0x88, 0x3D, 
  0x74, 0xA4, 0x77, 0x3D, 0x84, 0xF0, 0x95, 0xBD, 
  0x1B, 0xDD, 0x21, 0xBD, 0x1B, 0xFA, 0xA4, 0xBD, 
  0xC9, 0xEF, 0xC5, 0x3C, 0x8D, 0x65, 0x50, 0x3C, 
  0xFE, 0x85, 0x65, 0x3D, 0xD0, 0x33, 0x39, 0x3D, 
  0x4D, 0x5F, 0xB0, 0xBC, 0x65, 0x8A, 0x2E, 0xBC, 
  0xE0, 0x20, 0x11, 0xBD, 0xB4, 0xD2, 0xA9, 0x3C, 
  0x5D, 0x74, 0x54, 0x3D, 0xE3, 0x05, 0x4B, 0x3D, 
  0x7D, 0x6E, 0x5A, 0xBD, 0xEE, 0x52, 0x52, 0x3A, 
  0xA7, 0x16, 0x59, 0xBD, 0x0A, 0x1E, 0x56, 0xBC, 
  0x7A, 0xB0, 0xD5, 0x3C, 0xAA, 0xA6, 0x88, 0x3C, 
  0xE0, 0x71, 0xEC, 0xBC, 0xC2, 0x5D, 0x9A, 0xBB, 
  0x36, 0x19, 0x12, 0xBD, 0xDC, 0x12, 0x76, 0xBC, 
  0x34, 0xA7, 0xAB, 0x3D, 0xB6, 0x26, 0x50, 0x3C, 
  0x8D, 0x06, 0xA1, 0x3C, 0x70, 0xB1, 0x57, 0xBD, 
  0xF5, 0xBC, 0x91, 0x3D, 0x66, 0x98, 0x89, 0xBB, 
  0x75, 0xBA, 0xAE, 0x3C, 0x55, 0x7A, 0x02, 0x3E, 
  0xB0, 0x2D, 0x09, 0xBD, 0xAD, 0x44, 0x9E, 0x3D, 
  0xFD, 0x0E, 0x19, 0x3E, 0x7C, 0xE5, 0xAA, 0xBD, 
  0xDA, 0xCA, 0x83, 0xBD, 0x26, 0xF1, 0x15, 0x3D, 
  0x74, 0x89, 0xBB, 0xBC, 0x16, 0x46, 0xB3, 0x3D, 
  0xDB, 0x76, 0x55, 0x3D, 0x84, 0x23, 0x62, 0xBC, 
  0x6D, 0x87, 0xDA, 0xBC, 0xAE, 0xB5, 0x46, 0x3D, 
  0xA6, 0x22, 0xB9, 0xBA, 0xDA, 0xDE, 0x80, 0x3D, 
  0xB3, 0xC0, 0xAB, 0x3D, 0x11, 0x6A, 0x76, 0xBD, 
  0xC8, 0x24, 0x07, 0x3D, 0x45, 0xCA, 0x0B, 0x3D, 
  0x76, 0x83, 0x9E, 0x3C, 0x31, 0x8F, 0x86, 0x3C, 
  0x0B, 0x5B, 0xBA, 0xBC, 0xEC, 0x16, 0xCA, 0x3C, 
  0x6C, 0xF4, 0x83, 0x3D, 0xB7, 0x5A, 0xB3, 0x3C, 
  0x5F, 0x05, 0x3E, 0x3D, 0xDD, 0x86, 0xEC, 0xBC, 
  0xD5, 0xCD, 0x51, 0xBD, 0x9F, 0x0F, 0x2E, 0xBD, 
  0xCF, 0xC7, 0x35, 0xBD, 0xC0, 0x77, 0xE3, 0x3C, 
  0xC1, 0xA6, 0x56, 0x3C, 0xFB, 0x43, 0x00, 0x3D, 
  0xF0, 0xFB, 0x1E, 0xBD, 0x07, 0x38, 0x2A, 0xBD, 
  0x1B, 0x16, 0x91, 0x3D, 0xFC, 0xA8, 0x85, 0xBD, 
  0x9A, 0x2D, 0x7D, 0x3C, 0x80, 0xBC, 0x24, 0x3D, 
  0xD1, 0x67, 0xEA, 0xBC, 0x57, 0xDF, 0x64, 0x3C, 
  0x7E, 0x02, 0xB5, 0x3C, 0xFB, 0x90, 0xF8, 0xBC, 
  0x8C, 0xFE, 0xA4, 0x3D, 0x9F, 0x41, 0x55, 0xBC, 
  0xED, 0xFA, 0x38, 0x3C, 0xA8, 0x10, 0x95, 0x3D, 
  0x94, 0x8B, 0xC5, 0x3C, 0x17, 0x41, 0x85, 0xBD, 
  0xA8, 0x27, 0xA2, 0x3D, 0x77, 0x6A, 0x09, 0x3C, 
  0x92, 0xAD, 0x71, 0xBD, 0xE9, 0xE7, 0xB5, 0x3D, 
  0x13, 0x45, 0x13, 0x3D, 0xAB, 0x26, 0xA1, 0xBC, 
  0x73, 0xC6, 0xC3, 0xBB, 0xC9, 0x2B, 0x3C, 0x3D, 
  0x5D, 0xD0, 0x7D, 0xBD, 0xC6, 0x4B, 0x27, 0x3C, 
  0xFC, 0x77, 0xA5, 0x3D, 0xA4, 0x26, 0xDE, 0x3C, 
  0xC7, 0xC0, 0xC3, 0x3D, 0xF1, 0xF2, 0xC4, 0x3C, 
  0x20, 0x48, 0x65, 0xBD, 0xBF, 0x58, 0xC4, 0x3D, 
  0xCC, 0xEA, 0xA2, 0x3D, 0xC7, 0x98, 0x07, 0xBC, 
  0x58, 0xCB, 0x13, 0xBC, 0xA9, 0xA6, 0xA6, 0x3C, 
  0x2E, 0x90, 0xA3, 0xBC, 0x56, 0x10, 0x9C, 0x3D, 
  0x0A, 0x0B, 0xA2, 0x3D, 0x1F, 0xAA, 0x22, 0x3C, 
  0x51, 0x4A, 0xAF, 0x3D, 0x07, 0xD7, 0x76, 0xBC, 
  0x5F, 0xE3, 0xBD, 0xBD, 0x25, 0x99, 0x35, 0x3D, 
  0x1A, 0xF5, 0x2E, 0x3B, 0x23, 0x09, 0x6C, 0xBC, 
  0x17, 0x13, 0x6F, 0x3B, 0xFE, 0x79, 0x11, 0xBD, 
  0xE8, 0x46, 0x3D, 0xBD, 0x95, 0x60, 0xB4, 0x3C, 
  0x7F, 0x92, 0x03, 0xBC, 0xA4, 0x15, 0xEF, 0xBC, 
  0xFC, 0xE1, 0xC5, 0x3D, 0xD9, 0x26, 0x7D, 0xBD, 
  0x26, 0x9F, 0x01, 0xBD, 0x67, 0xF0, 0x5E, 0x3A, 
  0xFC, 0x12, 0xB6, 0x3C, 0x33, 0x53, 0xEA, 0xBC, 
  0xA0, 0xF1, 0xCA, 0x3D, 0xA8, 0xC1, 0x64, 0xBD, 
  0x24, 0xDB, 0x9D, 0xBD, 0xAF, 0x8F, 0xBB, 0x3D, 
  0xC2, 0x91, 0x0F, 0xBB, 0x57, 0xAA, 0x7B, 0xBC, 
  0x1D, 0x4B, 0x7F, 0x3C, 0x4D, 0x75, 0x1F, 0x3B, 
  0x59, 0xBF, 0x6E, 0xBC, 0x3C, 0x45, 0x24, 0x3D, 
  0xA0, 0x2F, 0x98, 0x3C, 0x4B, 0x6F, 0xE2, 0xBC, 
  0x7B, 0x0F, 0x78, 0x3D, 0xC8, 0x42, 0x33, 0xBA, 
  0xFE, 0xF5, 0x81, 0xBD, 0x00, 0x87, 0x32, 0x3D, 
  0x39, 0xF2, 0xB2, 0xBC, 0xDF, 0xD7, 0xE2, 0xBC, 
  0x6F, 0x7E, 0xC9, 0x3C, 0x33, 0xCB, 0xEE, 0x39, 
  0x4A, 0x18, 0x92, 0xBD, 0xE8, 0x1B, 0x95, 0x3C, 
  0xA8, 0x28, 0x20, 0x3D, 0xDA, 0x9E, 0x63, 0xBD, 
  0x15, 0xB5, 0x4C, 0x3D, 0xDF, 0xBC, 0x89, 0x3D, 
  0x8A, 0x55, 0xE3, 0xBC, 0x5E, 0x89, 0xFF, 0xBA, 
  0x39, 0x3E, 0xE6, 0xBC, 0xF3, 0xAB, 0x1A, 0xBC, 
  0x3F, 0xE4, 0x3B, 0x3D, 0xA9, 0x20, 0x9D, 0xBC, 
  0x69, 0x69, 0xE6, 0xBC, 0x9B, 0xE3, 0x20, 0xBD, 
  0x87, 0x14, 0xA1, 0x3D, 0x98, 0x4B, 0x88, 0x3B, 
  0xB2, 0x81, 0x03, 0x3D, 0x1D, 0x01, 0x4B, 0xBD, 
  0xFD, 0x4D, 0x32, 0x3D, 0x96, 0x85, 0xA4, 0x3D, 
  0xD2, 0x1A, 0x95, 0xBD, 0x3A, 0xED, 0xF6, 0x3C, 
  0x43, 0x95, 0x19, 0xBC, 0xCC, 0xFE, 0xFE, 0x3C, 
  0x20, 0x53, 0x22, 0x3D, 0xB0, 0x2A, 0x84, 0xBD, 
  0xAC, 0x41, 0x56, 0xBB, 0x60, 0xEF, 0x7F, 0x3D, 
  0x14, 0xD1, 0xD2, 0x3C, 0xEE, 0xE7, 0x47, 0xBC, 
  0xEC, 0x49, 0x72, 0xBC, 0xB7, 0x94, 0x22, 0x3D, 
  0x3A, 0x79, 0xEA, 0xBC, 0xC2, 0x47, 0x33, 0x3C, 
  0xDB, 0x86, 0xD7, 0x3B, 0x21, 0x47, 0x9E, 0xBC, 
  0xB4, 0x8C, 0x62, 0x3D, 0xA2, 0x85, 0x46, 0xBD, 
  0x9E, 0x1B, 0xFE, 0x3C, 0x76, 0x0C, 0x1E, 0xBB, 
  0x96, 0xFC, 0x19, 0x3D, 0xE8, 0xD9, 0xAE, 0xBC, 
  0xAA, 0x2F, 0x80, 0x3D, 0x1B, 0xF0, 0x41, 0x3D, 
  0x9B, 0xC3, 0x7B, 0xBC, 0xE2, 0xEE, 0x74, 0xBD, 
  0x1A, 0xD3, 0x2A, 0xBD, 0x62, 0xB3, 0x90, 0xBC, 
  0x7F, 0x20, 0x33, 0x3C, 0x9C, 0x7F, 0x3A, 0x3D, 
  0x75, 0x8E, 0x55, 0x3D, 0x4C, 0x10, 0x8B, 0x3C, 
  0x88, 0x6D, 0x57, 0x3D, 0xE1, 0xB3, 0xC6, 0xBB, 
  0x50, 0x11, 0x84, 0xBD, 0x1D, 0x1D, 0x37, 0x3D, 
  0x3F, 0x12, 0xED, 0xBC, 0xA1, 0xA3, 0x96, 0xBC, 
  0xE5, 0x58, 0xAA, 0xBC, 0x3D, 0x1F, 0x34, 0xBD, 
  0x9F, 0x3F, 0x09, 0xBB, 0x39, 0x90, 0x05, 0x3D, 
  0xA5, 0x9D, 0x32, 0x3D, 0x49, 0xF1, 0xC4, 0x3C, 
  0x6B, 0x25, 0x5B, 0x3C, 0xDA, 0x02, 0x6E, 0x3C, 
  0xE7, 0xEC, 0x26, 0xBD, 0x0A, 0x26, 0x2B, 0x3D, 
  0x25, 0x77, 0x6B, 0x3D, 0xF2, 0xB1, 0x82, 0xBD, 
  0x4F, 0x65, 0x99, 0x3B, 0xD9, 0x81, 0x26, 0xBD, 
  0x3D, 0xD2, 0x61, 0x3C, 0x23, 0x71, 0x0B, 0x3D, 
  0x03, 0x2C, 0x35, 0x3D, 0x0F, 0x5C, 0x77, 0xBD, 
  0xA3, 0x8D, 0x6E, 0x3D, 0x39, 0x7A, 0x95, 0x3D, 
  0x30, 0x44, 0xD9, 0x3C, 0x1C, 0xFB, 0x27, 0x3D, 
  0x57, 0x2C, 0x0B, 0x3A, 0x3D, 0x15, 0xCA, 0xBA, 
  0xFB, 0x6E, 0x38, 0x3D, 0x96, 0x15, 0x6E, 0xBB, 
  0x0A, 0xB1, 0x73, 0xBD, 0x2D, 0xBB, 0x71, 0x3B, 
  0x23, 0x10, 0xB0, 0x3D, 0x81, 0x69, 0x20, 0x3D, 
  0xFE, 0x8C, 0xA0, 0x3D, 0x29, 0x0C, 0xB6, 0xBC, 
  0xE2, 0x60, 0xE3, 0x3C, 0xD8, 0x27, 0x4A, 0x3C, 
  0x0A, 0xD0, 0x92, 0x3C, 0x65, 0x68, 0x1C, 0x3D, 
  0x4F, 0xCA, 0x09, 0x3C, 0x0D, 0x0C, 0x83, 0xBC, 
  0x74, 0x97, 0x80, 0xBD, 0xCE, 0x5B, 0xA4, 0x3D, 
  0xCC, 0xD7, 0x3B, 0xBB, 0x11, 0x12, 0x88, 0xBB, 
  0x21, 0x3B, 0xBD, 0x3D, 0xD6, 0x3D, 0xE0, 0xBC, 
  0x32, 0x19, 0x9C, 0xBD, 0x71, 0x50, 0xC3, 0x3D, 
  0xF1, 0xF3, 0x16, 0x3C, 0x24, 0x21, 0x37, 0x3C, 
  0x69, 0x04, 0x3B, 0xBC, 0x60, 0xC2, 0x1F, 0x3D, 
  0x07, 0x9E, 0x4E, 0x3C, 0x7A, 0xFB, 0xFB, 0x3B, 
  0x2F, 0x7B, 0x9B, 0x3D, 0xA6, 0x4F, 0x80, 0x3C, 
  0x8C, 0x4B, 0x8E, 0xBC, 0x7B, 0xB2, 0x6E, 0x3D, 
  0x86, 0xB8, 0x86, 0xBD, 0xAE, 0x13, 0x82, 0x3C, 
  0xFF, 0x2A, 0x18, 0x3C, 0x19, 0x8E, 0x12, 0x3D, 
  0xB4, 0x1C, 0xAD, 0x3D, 0xCA, 0x3D, 0x17, 0xBD, 
  0xB4, 0xE1, 0xA1, 0xBD, 0x7C, 0xAA, 0xD8, 0x3C, 
  0x05, 0x9A, 0x8D, 0xBC, 0x38, 0xF9, 0x2E, 0xBD, 
  0x67, 0x12, 0x03, 0xBD, 0x74, 0x89, 0x5D, 0x3D, 
  0xE8, 0x6B, 0x05, 0xBD, 0xEF, 0x9F, 0x26, 0xBB, 
  0x21, 0x67, 0x32, 0x3D, 0x97, 0x16, 0x7C, 0xBD, 
  0x6C, 0x63, 0x67, 0x3D, 0xC4, 0x2B, 0x9F, 0x3D, 
  0x78, 0x40, 0x1A, 0xBB, 0x0B, 0xC3, 0x26, 0x3D, 
  0xE1, 0xAA, 0xE6, 0xBC, 0x42, 0xBA, 0x68, 0x3C, 
  0xF6, 0x50, 0xC5, 0xBB, 0x90, 0x82, 0xA8, 0xBC, 
  0x8E, 0xD3, 0xB3, 0x3B, 0x10, 0x6A, 0x02, 0xBC, 
  0x35, 0x6B, 0x3E, 0xBC, 0xF4, 0x3F, 0x8E, 0x3C, 
  0x0D, 0x7C, 0x58, 0x3C, 0xAA, 0x68, 0x75, 0x3C, 
  0x02, 0x9A, 0x44, 0xBD, 0x8A, 0xD5, 0x93, 0xBC, 
  0x21, 0x47, 0x73, 0x3D, 0x1A, 0x7B, 0x02, 0x3C, 
  0xFC, 0x72, 0x69, 0x3D, 0x9A, 0xB3, 0x16, 0xBD, 
  0x7D, 0xA1, 0xE5, 0x3B, 0xE4, 0xC9, 0x6B, 0x3C, 
  0x23, 0x96, 0x88, 0xBD, 0x24, 0x53, 0xE4, 0x3B, 
  0x15, 0xB9, 0x15, 0x3A, 0x37, 0x51, 0x1A, 0xBC, 
  0x2A, 0xFA, 0xAA, 0x3D, 0xEA, 0x8F, 0x81, 0xBC, 
  0xAC, 0xF9, 0x79, 0x3B, 0x22, 0x46, 0x73, 0x3D, 
  0xB9, 0xE4, 0x55, 0xBA, 0x96, 0xBB, 0x13, 0xBB, 
  0x4E, 0x7E, 0xE4, 0xBB, 0xE5, 0x8F, 0x3D, 0xBC, 
  0x03, 0xE5, 0x53, 0x3D, 0x88, 0x4E, 0x9A, 0x3D, 
  0x34, 0x1F, 0x32, 0x3C, 0xFA, 0xAC, 0x44, 0xBD, 
  0xF1, 0x06, 0x89, 0x3D, 0xBE, 0x1D, 0x1D, 0x3D, 
  0x9F, 0xE2, 0xAB, 0xBB, 0x6D, 0x71, 0xCD, 0x3B, 
  0x54, 0xE4, 0x21, 0x3C, 0x69, 0xA7, 0x08, 0xBD, 
  0xA0, 0x7F, 0x3B, 0x3D, 0x92, 0xBA, 0x95, 0x3C, 
  0xC6, 0x47, 0x36, 0x3D, 0x7C, 0x4F, 0x9E, 0x3C, 
  0xEC, 0x63, 0x66, 0x3D, 0xBF, 0x07, 0x60, 0xBD, 
  0xC6, 0x5A, 0x75, 0xBD, 0xE4, 0x6A, 0x69, 0xBC, 
  0x0B, 0xC9, 0x2C, 0x3D, 0x07, 0x6B, 0x91, 0x3C, 
  0x78, 0xFE, 0x24, 0xBD, 0xCF, 0xEC, 0x81, 0x3C, 
  0x13, 0x3E, 0x5B, 0xBD, 0x27, 0xD8, 0x59, 0xBD, 
  0x06, 0xF7, 0x06, 0xBD, 0xE9, 0x83, 0xDF, 0x3A, 
  0x94, 0x2F, 0x15, 0xBD, 0xF5, 0xF4, 0x60, 0x3D, 
  0x20, 0x6D, 0x64, 0xBB, 0x7B, 0xB7, 0x77, 0x3C, 
  0x97, 0x28, 0x9F, 0x3D, 0xFC, 0xF6, 0x0C, 0xBD, 
  0x1C, 0x12, 0x1C, 0x3D, 0x0D, 0x3A, 0x2F, 0xBD, 
  0xF4, 0x64, 0xA9, 0xBD, 0x49, 0x69, 0x89, 0x3D, 
  0xD8, 0xF6, 0x77, 0x3B, 0xF1, 0xA7, 0xB3, 0xBD, 
  0x2E, 0xD0, 0xF1, 0x3B, 0x0A, 0xC4, 0xF1, 0xBC, 
  0x8F, 0xDA, 0x36, 0xBD, 0x72, 0xE4, 0x00, 0x3D, 
  0x3B, 0x16, 0x58, 0x3D, 0xC1, 0x6A, 0x01, 0xBD, 
  0x0F, 0x2C, 0x1A, 0xBD, 0xA2, 0x14, 0x29, 0x3D, 
  0x94, 0x14, 0x39, 0xBB, 0x4E, 0x29, 0x68, 0x3C, 
  0x21, 0xF0, 0x93, 0xBC, 0x51, 0x23, 0x5B, 0xBD, 
  0x03, 0xA5, 0x2F, 0x3D, 0xFC, 0xA1, 0x68, 0xBC, 
  0x41, 0xE6, 0x48, 0xBD, 0x7F, 0x24, 0xC2, 0xBC, 
  0x0E, 0x2D, 0xAE, 0x3C, 0x08, 0xC9, 0x7F, 0xBD, 
  0xB3, 0x2E, 0xC6, 0x3C, 0x52, 0xA2, 0xC0, 0x3D, 
  0x0C, 0xF3, 0x03, 0x3C, 0xE1, 0x6B, 0xE1, 0x3C, 
  0xE7, 0x5E, 0x9C, 0x3D, 0x9A, 0xD9, 0x20, 0xBB, 
  0x01, 0xEC, 0x61, 0x3D, 0x32, 0xB7, 0x69, 0x3D, 
  0x45, 0x56, 0xF9, 0x3C, 0x8D, 0x13, 0x96, 0x3D, 
  0x25, 0xFE, 0xAC, 0xBC, 0xDC, 0x7D, 0x92, 0xBD, 
  0x6C, 0x95, 0x3C, 0x3D, 0x91, 0xF7, 0x83, 0x3C, 
  0xAD, 0x73, 0x36, 0x39, 0x54, 0xB0, 0x2B, 0x3C, 
  0x7A, 0xF6, 0x26, 0x3B, 0xF8, 0x6F, 0x9F, 0xBD, 
  0x43, 0xDB, 0x35, 0x3C, 0x98, 0x38, 0xBB, 0x3C, 
  0x13, 0xC9, 0xA8, 0xBD, 0xCE, 0x7B, 0x33, 0x3D, 
  0x21, 0x8F, 0xE7, 0x3C, 0x07, 0x34, 0x26, 0xBD, 
  0x92, 0xC0, 0xD3, 0x3C, 0x39, 0xD6, 0x94, 0xBC, 
  0xD9, 0x3C, 0x86, 0xBD, 0x1B, 0xDE, 0xA8, 0x3D, 
  0x39, 0xEA, 0xD3, 0x3C, 0x38, 0x51, 0x68, 0xBA, 
  0xE3, 0xCC, 0x26, 0x3D, 0x29, 0x20, 0xF5, 0x3A, 
  0x4A, 0x02, 0x83, 0xBD, 0x93, 0x39, 0xD5, 0x3C, 
  0xDF, 0x0F, 0x90, 0x3D, 0xF6, 0x9D, 0x0F, 0xBB, 
  0x97, 0x0E, 0x8E, 0x3D, 0xBD, 0x45, 0x0B, 0xBC, 
  0xFA, 0x79, 0x84, 0xBD, 0xC0, 0xF2, 0xEC, 0xB9, 
  0xC5, 0xA0, 0xC8, 0xBC, 0x3B, 0x44, 0xCA, 0xBC, 
  0xCD, 0xE3, 0xC2, 0xBC, 0xA7, 0x8F, 0x3F, 0x3B, 
  0xE4, 0xDA, 0x23, 0x3C, 0x76, 0xC5, 0x96, 0x3D, 
  0xE3, 0xEC, 0x18, 0x3D, 0x3C, 0xB4, 0xD7, 0xBC, 
  0xE4, 0x01, 0x92, 0xBC, 0x02, 0x98, 0xE6, 0xBC, 
  0x14, 0xB5, 0x93, 0x3C, 0x3A, 0x32, 0x4E, 0x3B, 
  0x7D, 0xA1, 0x8C, 0x3D, 0x8D, 0x1B, 0x2B, 0xBD, 
  0x7E, 0xDC, 0xDF, 0x3C, 0xE7, 0x07, 0x28, 0xBD, 
  0xC4, 0x40, 0xD9, 0x3C, 0xAC, 0x05, 0x1C, 0x3D, 
  0x38, 0x52, 0xA7, 0x3C, 0xCD, 0x9E, 0x17, 0x3C, 
  0xAD, 0xF5, 0x5D, 0x3D, 0x76, 0xE9, 0xD1, 0xBC, 
  0x30, 0xAE, 0x35, 0x3D, 0x5B, 0x8C, 0xB7, 0x3C, 
  0x8B, 0x2F, 0xBB, 0xBB, 0x89, 0x23, 0x88, 0x3C, 
  0xE6, 0x03, 0x98, 0x3C, 0xEE, 0xEC, 0xCD, 0x3C, 
  0x7B, 0x76, 0xA6, 0x3D, 0xD3, 0x52, 0x20, 0x3C, 
  0xB3, 0x9D, 0x1C, 0x3C, 0x6D, 0x21, 0xB3, 0x3D, 
  0xC3, 0xDD, 0x63, 0xBD, 0x32, 0x60, 0x10, 0xBC, 
  0x72, 0x43, 0xD9, 0x3D, 0x64, 0x3C, 0xA0, 0xBC, 
  0xF5, 0x50, 0x7C, 0xBD, 0x12, 0x8D, 0xCA, 0x3D, 
  0x69, 0x0C, 0x29, 0x3D, 0xD3, 0x5D, 0xB9, 0xBB, 
  0x44, 0x9D, 0xB1, 0x3D, 0x77, 0xF2, 0x0A, 0xBC, 
  0xD2, 0xAD, 0x89, 0x3C, 0x12, 0x85, 0xF5, 0x3A, 
  0xE6, 0x6D, 0x08, 0x3D, 0xDF, 0x53, 0xD0, 0x3C, 
  0x78, 0x06, 0xC0, 0x3D, 0x76, 0x26, 0x81, 0x3C, 
  0x81, 0x10, 0x54, 0x3D, 0xFB, 0x25, 0x0D, 0xBD, 
  0xC7, 0xD3, 0x17, 0x3C, 0x71, 0xFF, 0xA5, 0x39, 
  0xD1, 0x9C, 0x03, 0x3D, 0xBA, 0x04, 0xF2, 0x3C, 
  0xF4, 0x13, 0x38, 0x3D, 0x8C, 0x8D, 0x53, 0x3D, 
  0x5A, 0x6B, 0xB4, 0x3B, 0x2C, 0x36, 0x61, 0xBD, 
  0x0B, 0x1A, 0x1E, 0xBD, 0x0E, 0x9F, 0x29, 0xBD, 
  0xC5, 0x88, 0xBC, 0x3B, 0xDC, 0x3D, 0x3F, 0x3D, 
  0x26, 0x63, 0x3A, 0xBD, 0x30, 0xAE, 0x6D, 0xBD, 
  0x3B, 0x7F, 0x2E, 0xBD, 0x04, 0xF4, 0x89, 0xBC, 
  0x2C, 0xDF, 0x09, 0xBD, 0x1F, 0xEA, 0x93, 0xBC, 
  0xDF, 0x3C, 0xA7, 0xBB, 0x9E, 0xBF, 0xB5, 0x3B, 
  0x02, 0x3F, 0x57, 0x3A, 0xE7, 0xCC, 0x82, 0x3D, 
  0x0C, 0x6A, 0x54, 0xBD, 0x57, 0x49, 0xC7, 0x3B, 
  0xC6, 0x6B, 0x2B, 0x3D, 0x48, 0x27, 0x27, 0xBC, 
  0xBB, 0x6A, 0x4F, 0xBD, 0xA7, 0x0E, 0x23, 0xBD, 
  0x9D, 0xBF, 0x1D, 0x3D, 0x87, 0x15, 0x80, 0xBD, 
  0xDD, 0x0D, 0xC8, 0x3C, 0xC5, 0x3D, 0x82, 0xBD, 
  0x47, 0xB3, 0x8F, 0xBD, 0x70, 0x78, 0x7C, 0x3D, 
  0x68, 0x12, 0xA1, 0x3C, 0xF2, 0x3E, 0xE5, 0x3C, 
  0x6A, 0x8F, 0x04, 0x3D, 0x5B, 0xD7, 0x9C, 0xBC, 
  0x9C, 0x29, 0xC7, 0xBC, 0x96, 0xC9, 0x2D, 0x3D, 
  0x35, 0xFD, 0xAC, 0x39, 0x92, 0x42, 0x5C, 0xBD, 
  0x17, 0x6D, 0xDA, 0x39, 0x25, 0x92, 0x5B, 0xBD, 
  0x01, 0xDD, 0x40, 0xBD, 0x98, 0x6A, 0x8D, 0x3D, 
  0xFA, 0x82, 0x41, 0x3D, 0x27, 0x51, 0x68, 0xBD, 
  0x11, 0xB7, 0xB4, 0x3C, 0x03, 0xE9, 0x47, 0x3C, 
  0xAC, 0x8F, 0x85, 0xBD, 0xEA, 0x0D, 0xE6, 0xBA, 
  0x67, 0x78, 0x06, 0xBD, 0x34, 0x83, 0x38, 0x3C, 
  0x7D, 0xF3, 0xDB, 0xBB, 0x89, 0xBF, 0xF5, 0xBB, 
  0x65, 0xE7, 0x01, 0x3C, 0x3A, 0x38, 0x0F, 0xBC, 
  0x67, 0xE8, 0xDA, 0xB7, 0xAF, 0x76, 0x0E, 0xBD, 
  0x8F, 0x2C, 0x72, 0x3D, 0x56, 0xCF, 0x9E, 0x3C, 
  0x9F, 0xBB, 0x2E, 0xBD, 0x57, 0x6C, 0xF3, 0x3B, 
  0x6F, 0x7E, 0x9A, 0xBC, 0xD9, 0x91, 0x56, 0xBC, 
  0x5E, 0x2E, 0x91, 0x3A, 0xFA, 0x6C, 0x71, 0x3C, 
  0xC5, 0x02, 0x08, 0x3D, 0xBD, 0x66, 0x0B, 0xBD, 
  0xE8, 0x84, 0xBB, 0xBB, 0x2D, 0x19, 0x36, 0x3D, 
  0x5C, 0x76, 0x66, 0x3D, 0x8D, 0xAC, 0x2C, 0x3D, 
  0x27, 0x76, 0x03, 0xBD, 0xA9, 0x84, 0x46, 0x3D, 
  0x77, 0xA3, 0x28, 0x3C, 0x63, 0xC0, 0x6C, 0xBB, 
  0x81, 0xD4, 0x00, 0x3D, 0xA3, 0x70, 0x8F, 0x3D, 
  0xB6, 0x6D, 0x7A, 0xBD, 0xE9, 0xE0, 0x84, 0x3D, 
  0xAA, 0x50, 0xDD, 0xBC, 0x7B, 0x0A, 0xD2, 0xBC, 
  0x71, 0x1B, 0x0A, 0xBD, 0x3A, 0xDF, 0x2F, 0xBD, 
  0x29, 0xA3, 0x80, 0xBC, 0x20, 0x6A, 0x32, 0xBD, 
  0xC0, 0xC3, 0xDC, 0x3C, 0xF1, 0x65, 0x26, 0xBD, 
  0xE5, 0x11, 0x70, 0x3D, 0x88, 0xD5, 0x28, 0xBC, 
  0xA1, 0xB9, 0x20, 0x3D, 0xAF, 0x57, 0xF2, 0xBB, 
  0xE9, 0x68, 0x21, 0xBD, 0xCB, 0x5C, 0x13, 0x3D, 
  0xA7, 0xC4, 0x11, 0x3B, 0x11, 0x88, 0xF8, 0xBA, 
  0x16, 0xD9, 0xA0, 0x3C, 0x3E, 0xB5, 0x5E, 0x3D, 
  0xFC, 0x21, 0x6D, 0xBC, 0xAF, 0xD3, 0x0B, 0x3C, 
  0x64, 0x80, 0x41, 0x3D, 0x5B, 0x90, 0x0D, 0x3D, 
  0xEF, 0x9E, 0x92, 0xBC, 0xFE, 0x0E, 0x27, 0x3D, 
  0x15, 0x9B, 0x1C, 0xBD, 0xEA, 0x09, 0xF6, 0x3D, 
  0x73, 0x55, 0xE5, 0xBC, 0x4F, 0xB3, 0xB8, 0xBC, 
  0x90, 0x16, 0x2B, 0x3D, 0x55, 0x24, 0xEA, 0x3C, 
  0x2E, 0x5D, 0x06, 0xBD, 0xC4, 0xD7, 0xC4, 0x3C, 
  0xD7, 0xA2, 0x8D, 0x3C, 0xD6, 0x74, 0x11, 0x3D, 
  0x0D, 0x90, 0xA8, 0x3D, 0xDC, 0xEE, 0x65, 0xBD, 
  0x32, 0x9A, 0x60, 0x3B, 0xBD, 0x0B, 0x8F, 0x3D, 
  0xAC, 0x33, 0x0F, 0xBC, 0x91, 0x7D, 0x8E, 0x3D, 
  0x3C, 0x67, 0x15, 0x3D, 0xE6, 0x2C, 0x14, 0xBD, 
  0x8D, 0xBA, 0x54, 0xBC, 0xE5, 0xFD, 0xF1, 0x3C, 
  0x77, 0xEC, 0x38, 0x3D, 0xBE, 0x4A, 0x46, 0x3D, 
  0xD2, 0x4E, 0x5F, 0x3D, 0x3E, 0x6E, 0xA0, 0xBC, 
  0x2A, 0x3F, 0xD6, 0x3C, 0xD4, 0xB4, 0x0C, 0x3D, 
  0x70, 0x26, 0x82, 0xBD, 0x7B, 0x99, 0x07, 0xBD, 
  0x24, 0x0B, 0x73, 0x3D, 0x60, 0x2C, 0x75, 0xBD, 
  0x7F, 0xC6, 0x3C, 0xBC, 0x4E, 0x93, 0x5C, 0xBC, 
  0xD7, 0xDA, 0xE0, 0xBC, 0x3C, 0x5B, 0x5D, 0x3D, 
  0xFA, 0xC1, 0xF3, 0x3C, 0x14, 0x83, 0xB6, 0xBC, 
  0xA4, 0x71, 0xD2, 0xBC, 0x97, 0x90, 0x9B, 0x3D, 
  0x20, 0x6A, 0x98, 0x3B, 0xED, 0xAA, 0x0F, 0x3D, 
  0x86, 0xAA, 0x88, 0x3D, 0x03, 0xB3, 0x11, 0xBC, 
  0xCE, 0x2D, 0x13, 0x3B, 0xB7, 0xD2, 0xBB, 0x3B, 
  0x31, 0xEE, 0x43, 0x3D, 0x1A, 0x76, 0xDF, 0x3C, 
  0xDD, 0xF6, 0xDF, 0xBB, 0x7A, 0x65, 0x6C, 0x3D, 
  0x8F, 0x8B, 0x25, 0x3D, 0x2A, 0x1F, 0xDB, 0x3B, 
  0xD8, 0xCB, 0x79, 0x3B, 0x59, 0x1E, 0xBA, 0x3C, 
  0x54, 0xD8, 0x3A, 0xBD, 0x14, 0x18, 0xED, 0x3C, 
  0x3C, 0x8B, 0x84, 0xBC, 0xB0, 0xBE, 0x9D, 0x3C, 
  0x25, 0x21, 0x3C, 0xBD, 0xC3, 0x2F, 0x96, 0xBC, 
  0x31, 0xE9, 0x23, 0xBD, 0x77, 0xEC, 0x45, 0xBD, 
  0x27, 0x7E, 0xDC, 0x3C, 0xA5, 0x6C, 0x68, 0x3C, 
  0xA3, 0x9A, 0x56, 0x3D, 0xAF, 0x3C, 0x23, 0x3D, 
  0x58, 0xDD, 0x5B, 0xBD, 0xE2, 0xF6, 0x45, 0x3D, 
  0xD4, 0x81, 0x22, 0x3C, 0xE4, 0xEE, 0x4F, 0xBD, 
  0x4F, 0xAA, 0x0F, 0x3D, 0xE8, 0xAB, 0x7D, 0xBD, 
  0x72, 0x7D, 0xBC, 0x3C, 0x94, 0xAD, 0xEF, 0x3C, 
  0x0C, 0x00, 0x08, 0x3D, 0xBF, 0x15, 0x2F, 0xBD, 
  0xB5, 0x66, 0xB4, 0xBB, 0x15, 0x23, 0x90, 0x3C, 
  0x0C, 0xCD, 0x32, 0xBB, 0x70, 0x6A, 0x38, 0xBD, 
  0x3E, 0xDA, 0x21, 0x3C, 0x78, 0xDF, 0x83, 0x3B, 
  0xD2, 0x5B, 0x9D, 0xBC, 0x26, 0xFF, 0x0D, 0xBD, 
  0xE6, 0xEB, 0x7D, 0x3C, 0x38, 0xAC, 0x19, 0x3D, 
  0x17, 0x6C, 0x26, 0xBD, 0x8A, 0xB5, 0xDA, 0xBC, 
  0x9F, 0x9F, 0x04, 0x3B, 0xA1, 0x32, 0x1B, 0xBD, 
  0x79, 0x77, 0xEA, 0xBC, 0xCC, 0x5D, 0x13, 0xBD, 
  0xCE, 0xEE, 0x1E, 0xBD, 0x62, 0x18, 0x69, 0x3D, 
  0xE1, 0x21, 0x04, 0x3D, 0xA7, 0x03, 0x07, 0x3D, 
  0x92, 0xF7, 0x65, 0xBD, 0xE9, 0xAA, 0xC1, 0x3C, 
  0xC2, 0x4E, 0x0D, 0x3D, 0x43, 0x49, 0x33, 0xBC, 
  0x0E, 0x5D, 0xD9, 0x3A, 0x80, 0x63, 0x00, 0xBA, 
  0x68, 0x67, 0x7A, 0xBD, 0x3C, 0x54, 0x06, 0x3D, 
  0x04, 0x3A, 0x88, 0x3D, 0x60, 0x9C, 0x28, 0xBC, 
  0x68, 0x3C, 0x29, 0xBD, 0xCA, 0xCC, 0xAD, 0x3C, 
  0x82, 0x3F, 0x90, 0x3B, 0x59, 0x5F, 0x79, 0x3D, 
  0xAE, 0x74, 0x6F, 0xBC, 0x3D, 0x09, 0xF5, 0x3C, 
  0xA2, 0x04, 0x08, 0xBD, 0xB1, 0x33, 0x18, 0x3C, 
  0x0D, 0xED, 0xDD, 0xBC, 0xB7, 0x68, 0x13, 0xBD, 
  0xF1, 0xC3, 0x61, 0x3C, 0x87, 0x85, 0x80, 0xBB, 
  0x24, 0x1D, 0xBE, 0x3B, 0xF3, 0x1E, 0x22, 0x3D, 
  0x89, 0x20, 0x06, 0x3C, 0x8E, 0x34, 0x10, 0x3D, 
  0xE2, 0xA0, 0xDD, 0xBC, 0x9D, 0x70, 0x82, 0x3D, 
  0xD2, 0x2C, 0xA4, 0x3C, 0xBC, 0xAD, 0x6B, 0x3E, 
  0x6B, 0xB0, 0x62, 0x3A, 0x9A, 0x59, 0x0F, 0xBD, 
  0xD4, 0x90, 0x42, 0xBD, 0x81, 0x11, 0x26, 0x3C, 
  0x60, 0x42, 0x01, 0xBD, 0x9B, 0xE5, 0x7F, 0x3D, 
  0xCB, 0x0C, 0x10, 0x3D, 0xFE, 0x28, 0xD6, 0x3C, 
  0x18, 0xBB, 0xC9, 0x3C, 0xA9, 0xDD, 0x25, 0x3D, 
  0xBF, 0x28, 0x61, 0x3D, 0x68, 0xA8, 0xCE, 0x3D, 
  0x13, 0x53, 0x09, 0x3E, 0x05, 0x4D, 0x7D, 0x3C, 
  0xD2, 0xAC, 0x62, 0x3D, 0xC9, 0x1A, 0xE3, 0x3D, 
  0xDF, 0x39, 0xEC, 0x3B, 0x9E, 0xE1, 0xD4, 0x3D, 
  0x3F, 0x4E, 0x10, 0x3D, 0x48, 0x28, 0xAC, 0x3C, 
